unsigned char cnn_mnist_model_tflite[] = {
  0x1c, 0x00, 0x00, 0x00, 0x54, 0x46, 0x4c, 0x33, 0x14, 0x00, 0x20, 0x00,
  0x1c, 0x00, 0x18, 0x00, 0x14, 0x00, 0x10, 0x00, 0x0c, 0x00, 0x00, 0x00,
  0x08, 0x00, 0x04, 0x00, 0x14, 0x00, 0x00, 0x00, 0x1c, 0x00, 0x00, 0x00,
  0x88, 0x00, 0x00, 0x00, 0xe0, 0x00, 0x00, 0x00, 0x54, 0x30, 0x00, 0x00,
  0x64, 0x30, 0x00, 0x00, 0x88, 0x35, 0x00, 0x00, 0x03, 0x00, 0x00, 0x00,
  0x01, 0x00, 0x00, 0x00, 0x04, 0x00, 0x00, 0x00, 0x1e, 0xcf, 0xff, 0xff,
  0x0c, 0x00, 0x00, 0x00, 0x1c, 0x00, 0x00, 0x00, 0x38, 0x00, 0x00, 0x00,
  0x0f, 0x00, 0x00, 0x00, 0x73, 0x65, 0x72, 0x76, 0x69, 0x6e, 0x67, 0x5f,
  0x64, 0x65, 0x66, 0x61, 0x75, 0x6c, 0x74, 0x00, 0x01, 0x00, 0x00, 0x00,
  0x04, 0x00, 0x00, 0x00, 0x94, 0xff, 0xff, 0xff, 0x08, 0x00, 0x00, 0x00,
  0x04, 0x00, 0x00, 0x00, 0x07, 0x00, 0x00, 0x00, 0x64, 0x65, 0x6e, 0x73,
  0x65, 0x5f, 0x33, 0x00, 0x01, 0x00, 0x00, 0x00, 0x04, 0x00, 0x00, 0x00,
  0x4a, 0xd0, 0xff, 0xff, 0x04, 0x00, 0x00, 0x00, 0x0e, 0x00, 0x00, 0x00,
  0x63, 0x6f, 0x6e, 0x76, 0x32, 0x64, 0x5f, 0x33, 0x5f, 0x69, 0x6e, 0x70,
  0x75, 0x74, 0x00, 0x00, 0x02, 0x00, 0x00, 0x00, 0x34, 0x00, 0x00, 0x00,
  0x04, 0x00, 0x00, 0x00, 0xdc, 0xff, 0xff, 0xff, 0x0b, 0x00, 0x00, 0x00,
  0x04, 0x00, 0x00, 0x00, 0x13, 0x00, 0x00, 0x00, 0x43, 0x4f, 0x4e, 0x56,
  0x45, 0x52, 0x53, 0x49, 0x4f, 0x4e, 0x5f, 0x4d, 0x45, 0x54, 0x41, 0x44,
  0x41, 0x54, 0x41, 0x00, 0x08, 0x00, 0x0c, 0x00, 0x08, 0x00, 0x04, 0x00,
  0x08, 0x00, 0x00, 0x00, 0x0a, 0x00, 0x00, 0x00, 0x04, 0x00, 0x00, 0x00,
  0x13, 0x00, 0x00, 0x00, 0x6d, 0x69, 0x6e, 0x5f, 0x72, 0x75, 0x6e, 0x74,
  0x69, 0x6d, 0x65, 0x5f, 0x76, 0x65, 0x72, 0x73, 0x69, 0x6f, 0x6e, 0x00,
  0x0c, 0x00, 0x00, 0x00, 0x70, 0x2f, 0x00, 0x00, 0x68, 0x2f, 0x00, 0x00,
  0x38, 0x2f, 0x00, 0x00, 0x00, 0x2e, 0x00, 0x00, 0xc8, 0x2d, 0x00, 0x00,
  0xb0, 0x2d, 0x00, 0x00, 0xa0, 0x00, 0x00, 0x00, 0x98, 0x00, 0x00, 0x00,
  0x90, 0x00, 0x00, 0x00, 0x88, 0x00, 0x00, 0x00, 0x68, 0x00, 0x00, 0x00,
  0x04, 0x00, 0x00, 0x00, 0xf6, 0xd0, 0xff, 0xff, 0x04, 0x00, 0x00, 0x00,
  0x54, 0x00, 0x00, 0x00, 0x0c, 0x00, 0x00, 0x00, 0x08, 0x00, 0x0e, 0x00,
  0x08, 0x00, 0x04, 0x00, 0x08, 0x00, 0x00, 0x00, 0x10, 0x00, 0x00, 0x00,
  0x24, 0x00, 0x00, 0x00, 0x00, 0x00, 0x06, 0x00, 0x08, 0x00, 0x04, 0x00,
  0x06, 0x00, 0x00, 0x00, 0x04, 0x00, 0x00, 0x00, 0x00, 0x00, 0x00, 0x00,
  0x00, 0x00, 0x0a, 0x00, 0x10, 0x00, 0x0c, 0x00, 0x08, 0x00, 0x04, 0x00,
  0x0a, 0x00, 0x00, 0x00, 0x02, 0x00, 0x00, 0x00, 0x02, 0x00, 0x00, 0x00,
  0x04, 0x00, 0x00, 0x00, 0x06, 0x00, 0x00, 0x00, 0x32, 0x2e, 0x31, 0x35,
  0x2e, 0x30, 0x00, 0x00, 0x56, 0xd1, 0xff, 0xff, 0x04, 0x00, 0x00, 0x00,
  0x10, 0x00, 0x00, 0x00, 0x31, 0x2e, 0x35, 0x2e, 0x30, 0x00, 0x00, 0x00,
  0x00, 0x00, 0x00, 0x00, 0x00, 0x00, 0x00, 0x00, 0x40, 0xcc, 0xff, 0xff,
  0x44, 0xcc, 0xff, 0xff, 0x48, 0xcc, 0xff, 0xff, 0x7e, 0xd1, 0xff, 0xff,
  0x04, 0x00, 0x00, 0x00, 0x00, 0x2d, 0x00, 0x00, 0x9f, 0x26, 0x49, 0xbe,
  0xad, 0x97, 0x17, 0x3e, 0x48, 0x82, 0x1b, 0xbf, 0x69, 0x4e, 0x81, 0xbd,
  0xdd, 0x43, 0xd3, 0x3c, 0xf1, 0xe9, 0xf2, 0xbd, 0x31, 0x58, 0xd9, 0xbe,
  0x6d, 0xe3, 0x3f, 0x3e, 0x62, 0xba, 0x54, 0xbe, 0xdd, 0xd3, 0x1c, 0x3c,
  0x68, 0x2a, 0x92, 0xbd, 0x3a, 0x53, 0x40, 0x3c, 0x7f, 0xc3, 0xc9, 0x3a,
  0x82, 0x51, 0x67, 0x3c, 0x4b, 0xfe, 0x68, 0xbe, 0x6d, 0x82, 0x57, 0xbc,
  0x2e, 0x49, 0xe2, 0x3a, 0x61, 0xf2, 0x1c, 0x3d, 0x64, 0x47, 0xad, 0x3d,
  0xfd, 0xd8, 0x2a, 0xbe, 0x02, 0xd5, 0x84, 0x3d, 0x91, 0xba, 0x69, 0x3c,
  0xf8, 0x36, 0x50, 0x3e, 0xc0, 0xd6, 0xa9, 0xbe, 0xc7, 0x88, 0x59, 0xbd,
  0x16, 0x7d, 0x3a, 0x3e, 0x76, 0xbc, 0x98, 0xbd, 0x7b, 0xf2, 0x36, 0xbe,
  0x9c, 0xee, 0x3a, 0xbe, 0xb7, 0x70, 0xd0, 0x3d, 0x9f, 0x4d, 0xf9, 0xbd,
  0xdf, 0x3b, 0x9d, 0x3c, 0x61, 0xe6, 0x9a, 0xbe, 0x8c, 0x5a, 0x0e, 0x3d,
  0xac, 0x04, 0xbb, 0xbc, 0x5a, 0x9c, 0x4f, 0x3d, 0xbf, 0xfd, 0x91, 0x3c,
  0xdb, 0x12, 0x9b, 0x3d, 0xcd, 0x04, 0x84, 0x3d, 0x6f, 0x21, 0x47, 0x3d,
  0x77, 0x82, 0x0f, 0xbf, 0xfd, 0x9b, 0xca, 0x3d, 0xd3, 0x2a, 0x71, 0xbd,
  0x37, 0xb5, 0x9b, 0xbe, 0x50, 0x1f, 0x3b, 0x3e, 0xa2, 0x1a, 0x69, 0xbe,
  0x50, 0x06, 0x76, 0x3b, 0xa9, 0x2d, 0x69, 0xbe, 0x35, 0x3b, 0x11, 0xbe,
  0x69, 0x60, 0xfc, 0x3d, 0x78, 0x72, 0x3b, 0xbe, 0xac, 0x6f, 0xc3, 0x3d,
  0x07, 0x4b, 0x96, 0x3e, 0x97, 0x29, 0xe9, 0x3d, 0x35, 0x73, 0xd8, 0xbe,
  0xf6, 0x96, 0x0f, 0xbd, 0x83, 0xbe, 0xeb, 0xbd, 0x50, 0xec, 0x2a, 0x3d,
  0xe9, 0x2a, 0x13, 0x3e, 0xd0, 0x9f, 0x29, 0x3e, 0x3d, 0xc0, 0xf6, 0x3d,
  0xa1, 0x1a, 0x2a, 0x3d, 0x5f, 0x5c, 0x7f, 0x3e, 0xdf, 0x47, 0x8a, 0xbe,
  0x28, 0x93, 0x38, 0x3e, 0xea, 0x07, 0x8e, 0xbe, 0xa2, 0x38, 0x8c, 0x3e,
  0x34, 0x90, 0xae, 0xbe, 0x6e, 0xe7, 0x0f, 0xbe, 0x3b, 0xa6, 0x2d, 0xbe,
  0xe0, 0xdd, 0x0d, 0x3e, 0x5f, 0xd8, 0xcc, 0xbe, 0xdd, 0xa2, 0xa9, 0x3e,
  0x06, 0xbe, 0x12, 0xbe, 0xfa, 0x5e, 0x17, 0xbe, 0x31, 0xa3, 0x18, 0xbe,
  0x92, 0xa4, 0x0f, 0xbf, 0x02, 0x08, 0xb5, 0x3d, 0xe2, 0x69, 0xea, 0xbe,
  0x25, 0x2b, 0xc8, 0xbb, 0x8b, 0xf5, 0x79, 0x3d, 0x3c, 0xf7, 0x01, 0x3e,
  0xeb, 0x28, 0x73, 0xbd, 0xad, 0x69, 0x20, 0x3e, 0x00, 0x4b, 0x29, 0xbe,
  0x08, 0x1c, 0x9c, 0x3d, 0x04, 0x39, 0x2c, 0xbe, 0x2c, 0xb7, 0xc5, 0x3e,
  0x91, 0x3a, 0x99, 0xbe, 0x51, 0x69, 0x19, 0xbe, 0xaa, 0xee, 0xe1, 0x3d,
  0xf1, 0x3e, 0x3a, 0x3e, 0x93, 0xf1, 0x21, 0x3e, 0xe7, 0x1a, 0xfa, 0x3d,
  0x6d, 0x20, 0xa4, 0xbd, 0xdd, 0x3d, 0x24, 0x3e, 0x02, 0x38, 0x3c, 0xbe,
  0xdf, 0x94, 0x42, 0x3d, 0xc0, 0x36, 0x13, 0x3b, 0x4e, 0x74, 0x73, 0x3d,
  0xeb, 0xc1, 0x14, 0x3e, 0x8a, 0x7a, 0x12, 0x3d, 0xd9, 0x41, 0x78, 0xbd,
  0x7d, 0x4a, 0x00, 0x3e, 0x0f, 0x82, 0x03, 0xbe, 0xcb, 0x11, 0xd1, 0xbd,
  0x32, 0x59, 0x95, 0x3e, 0xa9, 0xb2, 0x80, 0xbe, 0xe3, 0x20, 0x25, 0x3e,
  0x90, 0xdf, 0x00, 0xbd, 0xa5, 0x60, 0xb9, 0x3e, 0x94, 0xd0, 0xb6, 0xbc,
  0x00, 0xe5, 0x46, 0x3d, 0x8a, 0xc3, 0xc1, 0xbe, 0x51, 0xf0, 0xd3, 0x3d,
  0xaa, 0x29, 0xd1, 0xbe, 0xa2, 0xc5, 0x99, 0xbe, 0xfa, 0xdb, 0x42, 0xbe,
  0x0a, 0xfc, 0x8f, 0x3e, 0x21, 0x2c, 0xaa, 0xbe, 0xbf, 0xda, 0x8b, 0x3e,
  0xf9, 0x9b, 0xd6, 0xbe, 0xdd, 0xfb, 0xab, 0xbe, 0x08, 0x12, 0x12, 0xbe,
  0xfd, 0x3e, 0xd7, 0xbe, 0x57, 0x6c, 0x3b, 0xbe, 0x3e, 0xc8, 0xe1, 0xbe,
  0x0b, 0xfe, 0x57, 0xbe, 0x1d, 0x11, 0x08, 0x3e, 0xeb, 0x59, 0x05, 0x3e,
  0xd7, 0x25, 0xf9, 0xbe, 0xd6, 0xeb, 0x43, 0x3e, 0x0a, 0x3d, 0x2b, 0xbe,
  0x4c, 0xda, 0x69, 0x3e, 0x1c, 0x0d, 0x33, 0xbe, 0xe9, 0x29, 0xc6, 0xbc,
  0x6d, 0x42, 0xf0, 0xbd, 0xc3, 0x28, 0x39, 0x3d, 0x1c, 0xc4, 0x0d, 0x3d,
  0x1b, 0xe6, 0xc2, 0x3d, 0x09, 0x4a, 0xb9, 0x3d, 0xde, 0xb1, 0xb7, 0x3e,
  0x7e, 0x45, 0x32, 0x3e, 0xb7, 0x91, 0x54, 0x3e, 0xbf, 0xff, 0xb2, 0xbc,
  0x81, 0xd8, 0xba, 0x3d, 0xa6, 0x28, 0xf4, 0xbd, 0xa3, 0x59, 0xe1, 0x3d,
  0x30, 0xf5, 0xbe, 0x3d, 0x7f, 0x33, 0x00, 0x3e, 0x11, 0xcb, 0xfa, 0x3c,
  0xb8, 0x7f, 0x85, 0x3e, 0x8d, 0x04, 0x9a, 0xbe, 0x67, 0xdc, 0x40, 0xbe,
  0xf9, 0x83, 0x20, 0x3e, 0x0e, 0xa9, 0xef, 0xbd, 0xc5, 0x6d, 0x85, 0x3e,
  0xb9, 0x32, 0x2a, 0xbe, 0xb5, 0x5c, 0x9a, 0x3e, 0x3f, 0xfd, 0x8d, 0x3e,
  0x0b, 0x4a, 0x83, 0xbe, 0xa3, 0x68, 0xba, 0xbe, 0xf2, 0x5a, 0x8e, 0x3c,
  0x13, 0xc8, 0xac, 0xbe, 0x81, 0xab, 0x97, 0xbd, 0x45, 0xae, 0x8f, 0xbe,
  0x76, 0xb1, 0x60, 0x3e, 0x93, 0x8d, 0x71, 0xbe, 0xd4, 0x42, 0x35, 0xbe,
  0x4b, 0xe0, 0x1f, 0xbd, 0xe5, 0x0a, 0x0a, 0xbf, 0xe6, 0x33, 0x17, 0x3e,
  0xa7, 0xaa, 0xb6, 0xbe, 0xfe, 0xdd, 0x98, 0xbe, 0xde, 0x1b, 0xba, 0xbe,
  0xaa, 0x37, 0xbd, 0xbe, 0x2b, 0x60, 0xf1, 0xbe, 0xe4, 0x42, 0x8b, 0x3e,
  0xec, 0xf4, 0xab, 0xbe, 0x71, 0x84, 0xc6, 0x3c, 0xa1, 0xdf, 0x79, 0xbd,
  0xe6, 0x0b, 0x06, 0x3b, 0x99, 0xbf, 0xa6, 0xbe, 0x22, 0x51, 0x55, 0xbe,
  0xc0, 0x5a, 0xff, 0xbc, 0xa6, 0x45, 0x50, 0x3e, 0x50, 0x22, 0x33, 0xbd,
  0xcd, 0xd2, 0xae, 0x3d, 0xb0, 0xca, 0xbd, 0x3d, 0x8b, 0x11, 0xad, 0x3e,
  0x5e, 0xfc, 0xc9, 0x3d, 0xd3, 0xa9, 0xe0, 0x3d, 0x1f, 0x7c, 0x83, 0x3e,
  0xd3, 0xde, 0x56, 0x3e, 0x2e, 0xc1, 0x12, 0xbe, 0x02, 0xbb, 0x9e, 0x3d,
  0x09, 0x51, 0x0a, 0xbf, 0xda, 0xcb, 0x75, 0x3e, 0x23, 0xc6, 0x0b, 0xbf,
  0x79, 0x40, 0x90, 0x3d, 0xe4, 0x34, 0xc7, 0xbe, 0x20, 0x31, 0x69, 0x3c,
  0x4e, 0x88, 0x18, 0x3e, 0xc7, 0xe9, 0x46, 0xbe, 0x56, 0xcf, 0x20, 0x3e,
  0x38, 0x29, 0x86, 0xbd, 0x90, 0x0f, 0x57, 0x3e, 0x67, 0x33, 0xb0, 0x3d,
  0x7c, 0x70, 0xd8, 0xbe, 0xda, 0x3e, 0x0d, 0xbe, 0x43, 0x80, 0xee, 0x3d,
  0xa4, 0xb8, 0x09, 0xbe, 0xdf, 0xfe, 0x9e, 0xbc, 0xcb, 0xe7, 0x07, 0xbe,
  0xe3, 0x90, 0xf0, 0xbc, 0x2b, 0x6e, 0x06, 0x3e, 0x02, 0xd7, 0xb0, 0xbe,
  0x8d, 0xd6, 0x51, 0xbc, 0xdc, 0x1b, 0x35, 0xbe, 0x2f, 0xab, 0x86, 0x3d,
  0x95, 0x51, 0x33, 0x3e, 0x02, 0x18, 0x85, 0x3c, 0x39, 0xf6, 0xa7, 0xbe,
  0xde, 0xd0, 0x40, 0xbe, 0x7b, 0xf3, 0x96, 0xbe, 0x2d, 0xd1, 0xa0, 0x3c,
  0xda, 0x03, 0x85, 0x3c, 0x87, 0xb0, 0x83, 0x3c, 0x70, 0x3f, 0xc3, 0x3d,
  0x42, 0xda, 0xf0, 0x3d, 0xc0, 0xa0, 0x07, 0x3d, 0x41, 0x2e, 0x92, 0xbe,
  0x1a, 0xeb, 0x39, 0x3e, 0x09, 0xb3, 0xbe, 0x3d, 0x79, 0xce, 0xa6, 0x3d,
  0xfa, 0xc4, 0x40, 0xbd, 0x02, 0xfb, 0x16, 0x3e, 0x88, 0x41, 0x9a, 0xbb,
  0xe2, 0xf9, 0xa3, 0x3d, 0xd2, 0xc2, 0x6f, 0xbe, 0x48, 0xa2, 0xae, 0x3d,
  0xd1, 0xca, 0x87, 0xbb, 0x44, 0x7b, 0x75, 0xbe, 0x27, 0x9a, 0x5d, 0x3d,
  0xd8, 0x82, 0x24, 0xbf, 0xea, 0x0c, 0x36, 0x3e, 0x3d, 0xb1, 0x0d, 0xbf,
  0x84, 0x42, 0xdc, 0xbe, 0x5a, 0x68, 0xd0, 0xbb, 0x6c, 0x90, 0xbc, 0x3c,
  0x49, 0xf2, 0xbd, 0x3d, 0xfb, 0x86, 0x29, 0xbe, 0x11, 0x46, 0xc4, 0xbd,
  0x60, 0xb4, 0x91, 0xbd, 0xa4, 0x7c, 0xd0, 0x3d, 0x34, 0x8a, 0x19, 0xbc,
  0x39, 0x4c, 0x88, 0xbd, 0x4c, 0x68, 0xf4, 0xbd, 0xbb, 0xec, 0x0a, 0x3e,
  0xfd, 0x74, 0x01, 0xbc, 0x9c, 0xb7, 0x04, 0xbe, 0x41, 0xb4, 0x88, 0xbd,
  0xc8, 0x0d, 0xbd, 0xbd, 0x9f, 0x70, 0x46, 0xbd, 0x8f, 0x9e, 0xce, 0xbd,
  0x30, 0xb8, 0x3e, 0x3e, 0x25, 0x1e, 0x1a, 0x3d, 0x6a, 0x72, 0x1d, 0x3e,
  0xe6, 0x5b, 0x25, 0x3d, 0xa2, 0xaa, 0xc1, 0xbc, 0xeb, 0x44, 0xce, 0xbd,
  0x69, 0x30, 0x14, 0xbd, 0x67, 0x27, 0x22, 0xbd, 0x8c, 0x78, 0x02, 0x3d,
  0x16, 0x3a, 0xb0, 0x3d, 0x62, 0x15, 0xa4, 0x3c, 0x5f, 0x40, 0xbe, 0x3c,
  0x14, 0x14, 0x10, 0x3e, 0xc1, 0xf2, 0x53, 0x3e, 0xbb, 0x83, 0xcd, 0xbd,
  0xe9, 0xa8, 0x02, 0xbd, 0xf1, 0xa2, 0x5d, 0xbe, 0xba, 0x24, 0x3e, 0xbd,
  0xa3, 0x4a, 0x8f, 0xbd, 0x26, 0x51, 0x70, 0xbe, 0xe6, 0xff, 0x6a, 0x3d,
  0x57, 0x74, 0x4b, 0xbd, 0xef, 0x9c, 0x89, 0x3d, 0xf9, 0xbb, 0xe2, 0xbd,
  0x49, 0x02, 0xc6, 0xbd, 0x27, 0xb2, 0xa7, 0x3c, 0x31, 0xe1, 0xc2, 0xbd,
  0x62, 0xca, 0x44, 0xbe, 0x85, 0xc8, 0x25, 0xbe, 0xfd, 0x9d, 0xc1, 0x3e,
  0xfa, 0x73, 0x9e, 0x3c, 0x4f, 0x6d, 0x73, 0xbe, 0x21, 0x1f, 0x93, 0x3d,
  0xb4, 0x20, 0xef, 0xbe, 0x29, 0x4b, 0x97, 0x3b, 0xbc, 0x49, 0xa8, 0xbe,
  0x08, 0x56, 0x27, 0x3d, 0x62, 0x12, 0xc6, 0xbe, 0x09, 0xe7, 0xfc, 0x3d,
  0x37, 0xad, 0x1e, 0xbf, 0x3d, 0xb5, 0x7b, 0xbd, 0xe5, 0xa2, 0x40, 0xbe,
  0x7e, 0x1f, 0x1d, 0xbc, 0xd1, 0xa3, 0xc6, 0xbc, 0x52, 0x7c, 0x3e, 0x3c,
  0xd4, 0x5e, 0x0e, 0xbe, 0x3c, 0x3b, 0x30, 0x3e, 0x53, 0x2c, 0xa3, 0xbe,
  0xe1, 0x84, 0x4c, 0xbd, 0x4b, 0x53, 0xf3, 0xbd, 0x32, 0x0e, 0x3c, 0x3e,
  0x2e, 0xa4, 0x91, 0x3e, 0xa0, 0x50, 0x5b, 0xbd, 0x34, 0x4f, 0x73, 0x3d,
  0xc1, 0x38, 0xc2, 0xbe, 0xb9, 0x9f, 0x07, 0xbe, 0xfa, 0xa5, 0xf5, 0x3d,
  0x55, 0x65, 0xa2, 0x3d, 0xdb, 0x01, 0x51, 0xbe, 0x81, 0x93, 0x16, 0x3e,
  0x0e, 0x79, 0x12, 0xbe, 0x74, 0x15, 0x2f, 0x3e, 0xd2, 0xa0, 0xe5, 0xbe,
  0xd2, 0x0a, 0x8b, 0x3e, 0x98, 0xa7, 0x9e, 0xbe, 0x38, 0x51, 0xc0, 0xbd,
  0x9c, 0x48, 0xd5, 0xbd, 0xcb, 0x75, 0x3e, 0xbe, 0xd4, 0x93, 0x55, 0xbe,
  0x7c, 0x0e, 0x65, 0xbe, 0xf7, 0x5e, 0x26, 0x3d, 0x1d, 0xd1, 0xcf, 0xbe,
  0x68, 0xce, 0x8f, 0xbd, 0x63, 0x81, 0xf2, 0xbe, 0xe8, 0x32, 0x4a, 0xbd,
  0xc2, 0xe1, 0x81, 0xbc, 0x74, 0x8b, 0x10, 0xbe, 0x8f, 0x07, 0xeb, 0xbc,
  0x70, 0x1d, 0x50, 0x3e, 0xc9, 0xd9, 0x5e, 0xbe, 0xd7, 0xc8, 0x7f, 0x3e,
  0x71, 0x58, 0xe7, 0xbe, 0xf9, 0xaa, 0x10, 0x3d, 0x9e, 0x20, 0xa0, 0xbd,
  0xe4, 0x61, 0x7e, 0x3d, 0x71, 0xa0, 0xfb, 0xbe, 0x5b, 0x2e, 0xc2, 0xbd,
  0x79, 0x71, 0x90, 0xbe, 0x75, 0x47, 0x8c, 0x3e, 0x75, 0x3c, 0x7b, 0xbe,
  0xc2, 0xa4, 0x0d, 0x3c, 0x9a, 0x5c, 0x8a, 0x3e, 0x15, 0x46, 0x3d, 0x3e,
  0x58, 0xaf, 0x58, 0x3c, 0x09, 0xce, 0x88, 0xbe, 0x78, 0x82, 0x48, 0xbe,
  0xe9, 0x47, 0x8c, 0x3e, 0x5b, 0xd9, 0x74, 0x3e, 0xda, 0xa1, 0x46, 0xbe,
  0x94, 0x03, 0xb3, 0x3d, 0xcd, 0x81, 0xc3, 0xbd, 0x32, 0x45, 0x9c, 0x3e,
  0x57, 0xa4, 0x78, 0xbe, 0x06, 0x7b, 0xe5, 0xbd, 0x75, 0x98, 0xe5, 0xbd,
  0xd0, 0xb5, 0xfd, 0x3d, 0xce, 0x28, 0x2c, 0xbe, 0xe1, 0xe0, 0x97, 0x3c,
  0x18, 0x4b, 0x09, 0x3d, 0x64, 0x85, 0x0e, 0x3d, 0xe4, 0x17, 0x97, 0xbd,
  0x4c, 0x1f, 0x8f, 0x3d, 0x24, 0xab, 0xad, 0xbe, 0xb6, 0x98, 0x19, 0xbc,
  0x36, 0xc2, 0x20, 0x3e, 0x06, 0xeb, 0xe5, 0x39, 0x27, 0x6a, 0xf8, 0xbe,
  0x88, 0x54, 0xd0, 0xbd, 0x8e, 0x22, 0x97, 0xbe, 0x36, 0x25, 0x50, 0xbe,
  0x40, 0xb4, 0xc7, 0x3d, 0xb4, 0xbd, 0xeb, 0xbe, 0x1d, 0xc4, 0x08, 0xbe,
  0xa6, 0xa5, 0xab, 0xbd, 0x62, 0xf9, 0x99, 0x3d, 0xe5, 0x99, 0xa0, 0xbd,
  0xdb, 0x39, 0xaf, 0xbd, 0x0b, 0x2d, 0x94, 0x3d, 0xca, 0x6b, 0xcb, 0x3d,
  0x8d, 0x03, 0x91, 0x3c, 0xe1, 0x13, 0x17, 0x3e, 0x46, 0xc0, 0x95, 0xbd,
  0xa3, 0x98, 0xc2, 0x3c, 0xae, 0x66, 0x47, 0xbe, 0x24, 0x65, 0x5d, 0xbe,
  0x10, 0x91, 0x82, 0x3d, 0x80, 0x69, 0x8e, 0x3e, 0x8f, 0x22, 0x78, 0xbd,
  0xe9, 0x1c, 0x4d, 0x3d, 0x4a, 0xc6, 0x10, 0xbe, 0x00, 0x79, 0x42, 0x3d,
  0xf2, 0xe9, 0x8f, 0xbd, 0x2d, 0x82, 0x53, 0xbd, 0x8c, 0x6a, 0xda, 0xbc,
  0x84, 0x31, 0x53, 0x3d, 0xc0, 0x6d, 0x81, 0x3d, 0x3d, 0x53, 0x00, 0x3e,
  0xa5, 0xe3, 0x38, 0xbc, 0xc3, 0xe9, 0xa3, 0x3d, 0x11, 0x31, 0x61, 0xbc,
  0xef, 0x5f, 0x77, 0x3e, 0x9d, 0x67, 0x93, 0xbd, 0x20, 0xcc, 0x70, 0xbe,
  0x73, 0x2c, 0x1f, 0x3e, 0xec, 0xd5, 0xe3, 0x3d, 0x05, 0x1f, 0x27, 0xbc,
  0x84, 0x0e, 0x0b, 0xbe, 0xe1, 0x34, 0x92, 0xbd, 0x5f, 0x8d, 0x6d, 0x3d,
  0x6a, 0x69, 0x9c, 0xbc, 0x85, 0xf0, 0x4a, 0xbe, 0xdd, 0xd4, 0x07, 0xbd,
  0x25, 0x03, 0x8a, 0xbe, 0xb4, 0x02, 0x9a, 0xbd, 0xe7, 0xc9, 0x9c, 0xbe,
  0x83, 0xa2, 0x1e, 0x3c, 0xd5, 0x2e, 0x00, 0xbf, 0x6e, 0x72, 0xb7, 0x3c,
  0x83, 0x9b, 0x84, 0xbc, 0xa4, 0x29, 0xa7, 0x3d, 0xff, 0x6c, 0x9d, 0x3d,
  0x3e, 0x30, 0xda, 0xbe, 0x02, 0x57, 0xd5, 0xbd, 0x49, 0x02, 0x40, 0x3e,
  0x91, 0xb1, 0x65, 0xbe, 0x37, 0x3b, 0xf6, 0xbc, 0x99, 0xe3, 0xf0, 0x3d,
  0xd0, 0x49, 0x36, 0xbe, 0x3e, 0x6a, 0xfb, 0x3d, 0x68, 0x33, 0x03, 0xbe,
  0x2f, 0x08, 0x33, 0x3e, 0x3f, 0xeb, 0x01, 0xbe, 0x52, 0x27, 0x88, 0xbc,
  0x56, 0xbe, 0x97, 0x3d, 0x0d, 0xa8, 0x34, 0x3e, 0xc1, 0x2f, 0x8e, 0xbd,
  0x05, 0xad, 0xc6, 0x3c, 0x15, 0x73, 0x74, 0xbe, 0x73, 0xf1, 0x0c, 0x3d,
  0xdf, 0xea, 0x93, 0xbd, 0xde, 0xec, 0xc7, 0x3d, 0x1e, 0xa3, 0xd6, 0x3c,
  0xc3, 0x76, 0x39, 0x3c, 0xf9, 0xe5, 0x16, 0x3e, 0xb5, 0x7d, 0x86, 0x3e,
  0x31, 0x77, 0x96, 0xbd, 0x49, 0x43, 0x25, 0x3e, 0x08, 0x4e, 0x00, 0x3d,
  0x75, 0x58, 0x2d, 0x3e, 0xee, 0x55, 0x04, 0x3e, 0xc1, 0xe4, 0x59, 0xbd,
  0xdb, 0xe9, 0xb2, 0x3d, 0x88, 0xa6, 0x8a, 0xbe, 0xe6, 0x56, 0xed, 0x3d,
  0xf5, 0x23, 0xc3, 0xbd, 0x44, 0xe2, 0x0d, 0xbc, 0x62, 0xb0, 0x8a, 0xbd,
  0xc1, 0x52, 0x31, 0x3e, 0xc2, 0x75, 0xd2, 0xbe, 0x07, 0x27, 0x26, 0xbe,
  0x1e, 0xf4, 0xec, 0xbd, 0x6c, 0x4d, 0x86, 0xbe, 0x72, 0xfa, 0x80, 0xbe,
  0xe6, 0x8d, 0x71, 0xbe, 0x40, 0xe1, 0x26, 0xbe, 0x3e, 0x2d, 0xd9, 0x3c,
  0x05, 0x0a, 0x9a, 0xbd, 0xbc, 0x30, 0x42, 0xbe, 0x2d, 0xb9, 0x6d, 0xbd,
  0x40, 0x46, 0xa5, 0xbe, 0x92, 0xb9, 0x6d, 0xbd, 0xa4, 0x94, 0x03, 0x3c,
  0x7d, 0x66, 0xb7, 0xbd, 0xf0, 0xb9, 0xb5, 0x3d, 0xe7, 0xd5, 0x21, 0x3c,
  0x3b, 0xb2, 0x88, 0xbe, 0x11, 0x80, 0xb3, 0x3d, 0x93, 0xbd, 0x0c, 0xbe,
  0x38, 0x72, 0x20, 0x3d, 0xe6, 0xd6, 0x91, 0xbe, 0x39, 0xbb, 0xc4, 0xbd,
  0xb8, 0xd6, 0x0e, 0xbe, 0x31, 0x78, 0x60, 0x3e, 0x18, 0x11, 0xa3, 0xbd,
  0x3c, 0x22, 0x7a, 0x3e, 0x8b, 0xc4, 0xeb, 0xbd, 0x29, 0xf2, 0x45, 0x3c,
  0xc9, 0x0c, 0x67, 0xbe, 0xa3, 0x2b, 0x2b, 0x3c, 0xfc, 0x4c, 0x0e, 0xbe,
  0x87, 0x18, 0x89, 0x3d, 0xcc, 0x7d, 0x5a, 0x3a, 0xf9, 0xc0, 0xa1, 0x3d,
  0xd0, 0x8e, 0x58, 0x3e, 0x5b, 0x93, 0x4b, 0xbc, 0x24, 0x1e, 0x67, 0x3c,
  0xbb, 0x73, 0xff, 0x3c, 0x7e, 0xb5, 0xcf, 0xbd, 0xe3, 0xe5, 0x6a, 0xbe,
  0x42, 0x5e, 0xa6, 0x3c, 0xef, 0x5b, 0x35, 0xbe, 0x0e, 0xaf, 0x52, 0x3d,
  0x20, 0x45, 0xeb, 0xbd, 0xb8, 0x6a, 0xfb, 0x3d, 0xd3, 0xab, 0x25, 0x3c,
  0x39, 0x7a, 0x04, 0x3e, 0xbb, 0x50, 0x31, 0xbe, 0x14, 0x8b, 0x37, 0xbe,
  0x5e, 0xba, 0x0a, 0x3e, 0x5f, 0xa7, 0xc7, 0xbd, 0x9a, 0x8e, 0x99, 0xbe,
  0xa5, 0x10, 0xa1, 0xbe, 0x0a, 0x21, 0x72, 0xbe, 0xfb, 0x67, 0xaf, 0x3c,
  0xcd, 0x9f, 0xc5, 0xbd, 0x6c, 0x04, 0x59, 0xbe, 0x06, 0x14, 0x3f, 0xbd,
  0xc2, 0xb3, 0x32, 0x3d, 0xb9, 0x6a, 0x63, 0xbd, 0xce, 0xff, 0xda, 0xbd,
  0x07, 0xad, 0x50, 0xbd, 0x37, 0x09, 0x0c, 0x3d, 0xa1, 0xc5, 0xa9, 0x3d,
  0x1d, 0xf9, 0x9e, 0xbe, 0x37, 0xcb, 0x74, 0x3d, 0x24, 0x71, 0x76, 0xbd,
  0x79, 0xa9, 0x8e, 0xbd, 0x2a, 0x25, 0xa7, 0xbe, 0x73, 0xcc, 0x51, 0xbe,
  0x08, 0x7d, 0xdb, 0x3d, 0xbb, 0x2e, 0x33, 0x3e, 0x42, 0xe8, 0x33, 0xbe,
  0xd4, 0xe3, 0xbc, 0x3c, 0x49, 0xca, 0x20, 0xbe, 0x1f, 0xb6, 0xd9, 0x3d,
  0xff, 0x2c, 0xba, 0xbd, 0x67, 0x02, 0x2d, 0xbc, 0xa8, 0xa1, 0x81, 0x3c,
  0x82, 0xec, 0x64, 0x3e, 0xa1, 0x8f, 0x4a, 0x3b, 0xd8, 0x49, 0x82, 0xbc,
  0x3e, 0x8f, 0xa3, 0xbd, 0x86, 0xba, 0xb1, 0x3d, 0x8d, 0x5f, 0x59, 0xbd,
  0x72, 0xc2, 0x8a, 0x3e, 0x1f, 0xab, 0x0f, 0xbf, 0x37, 0x7f, 0x44, 0x3b,
  0x31, 0xb1, 0xad, 0x3c, 0x31, 0x55, 0xa2, 0x3c, 0xfd, 0x42, 0x09, 0x3e,
  0xf6, 0x3c, 0xa8, 0xbd, 0xd1, 0xab, 0xf5, 0xbb, 0x96, 0x14, 0x5b, 0x3e,
  0xeb, 0xe9, 0xe5, 0xbe, 0x27, 0x0e, 0x45, 0x3e, 0xc0, 0xf7, 0x58, 0xbc,
  0x3d, 0x29, 0x9a, 0x3e, 0xd5, 0xb3, 0x04, 0x3e, 0x61, 0x03, 0x6f, 0xbc,
  0x3b, 0x5f, 0xc5, 0xbd, 0x42, 0x62, 0x9a, 0xbe, 0x69, 0xa6, 0x30, 0x3e,
  0x6e, 0x15, 0x72, 0x3d, 0x2c, 0xfe, 0x08, 0x3f, 0xc8, 0x6d, 0x71, 0x3e,
  0xa4, 0x0f, 0x93, 0x3e, 0xb5, 0xfe, 0x3a, 0x3e, 0x21, 0xf1, 0x4c, 0x3e,
  0x6c, 0xc6, 0xb0, 0x3c, 0xe4, 0x46, 0xde, 0x3d, 0xe1, 0xcd, 0xe2, 0x3d,
  0x16, 0x6d, 0x83, 0x3d, 0xff, 0x1f, 0x35, 0x3d, 0xc4, 0x70, 0xcb, 0x3d,
  0xfe, 0x1a, 0x4e, 0xbd, 0x7f, 0x8e, 0xeb, 0x3d, 0xb1, 0x3e, 0x9b, 0x3d,
  0xb5, 0x12, 0x4c, 0x3e, 0xa9, 0xcf, 0x5b, 0xbb, 0x68, 0xd0, 0x04, 0x3d,
  0x7f, 0xc2, 0xcd, 0xbd, 0xdb, 0xfb, 0x5d, 0xbe, 0x5b, 0xec, 0xc4, 0x3d,
  0xf5, 0x1d, 0x6b, 0xbe, 0x95, 0x2b, 0x64, 0xbd, 0xb5, 0x9b, 0xce, 0xba,
  0x50, 0xdc, 0xad, 0xbc, 0xda, 0xdf, 0x06, 0x3e, 0xbf, 0x03, 0xf1, 0xbb,
  0x73, 0x0f, 0x2d, 0x3e, 0x09, 0xed, 0x36, 0x3c, 0x76, 0xcc, 0xcc, 0x3d,
  0xc4, 0x69, 0x1b, 0x3e, 0x9f, 0xd8, 0xce, 0xbc, 0xff, 0x58, 0xd5, 0x3c,
  0x6b, 0xc1, 0x78, 0x3d, 0xa6, 0xb3, 0x52, 0x3a, 0x0e, 0x16, 0x6a, 0xbc,
  0x09, 0xd4, 0xae, 0xbd, 0xaf, 0xb6, 0xb6, 0x3c, 0x1c, 0x15, 0x93, 0xbd,
  0xad, 0x5a, 0x92, 0xbe, 0x6e, 0x2a, 0xb1, 0xbd, 0x90, 0xb2, 0xa4, 0xbd,
  0x75, 0xf3, 0x85, 0x3d, 0x79, 0xf1, 0xb0, 0xbc, 0xb1, 0xf0, 0xd4, 0x3d,
  0x08, 0x30, 0xa1, 0x3d, 0xb0, 0xc9, 0x44, 0x3d, 0x6e, 0xf9, 0x92, 0x3e,
  0xea, 0x26, 0xab, 0xbe, 0x1d, 0x13, 0xf9, 0x3e, 0x5f, 0x40, 0x11, 0xbd,
  0x84, 0x27, 0x1c, 0xbe, 0xf5, 0x3f, 0xe2, 0x3c, 0x12, 0xa7, 0x0e, 0x3f,
  0xf0, 0x78, 0xb9, 0xbe, 0xb2, 0x7e, 0x79, 0x3e, 0x7d, 0x1c, 0x98, 0xbe,
  0x20, 0xbc, 0x2b, 0x3e, 0x45, 0xfe, 0x80, 0xbe, 0x0d, 0x56, 0x16, 0xbf,
  0x42, 0x39, 0xe4, 0xbc, 0x9b, 0xf3, 0xd4, 0x3d, 0x68, 0xd0, 0x37, 0x3d,
  0x59, 0x46, 0x6c, 0x3e, 0xc9, 0xdd, 0xa2, 0xbc, 0xed, 0xc0, 0x22, 0xbe,
  0x67, 0xfb, 0xc7, 0x3d, 0xee, 0x38, 0xca, 0xbe, 0x3a, 0x08, 0xb8, 0x3c,
  0x8b, 0x8e, 0xa7, 0xbe, 0x61, 0x0e, 0x38, 0x3d, 0x22, 0x3a, 0xaa, 0xbd,
  0x10, 0xe1, 0x5c, 0xbd, 0xad, 0x2d, 0x54, 0xbd, 0x2d, 0xee, 0xbe, 0x3b,
  0xb5, 0x65, 0xe2, 0xbd, 0x24, 0x6b, 0x6c, 0x3d, 0x25, 0x7c, 0x88, 0xbd,
  0x17, 0xf6, 0x12, 0x3e, 0xf9, 0x30, 0x46, 0xbb, 0x49, 0x62, 0xde, 0xbd,
  0x2f, 0x2f, 0x64, 0xbd, 0x88, 0xbd, 0x5f, 0xbb, 0x18, 0x02, 0xa8, 0xbd,
  0xaf, 0x52, 0x91, 0x3d, 0xb1, 0x80, 0x90, 0xbd, 0xbc, 0xb7, 0x79, 0xbd,
  0x8f, 0x9d, 0xd0, 0xbd, 0xf9, 0xa9, 0xcf, 0xbb, 0x5f, 0xaf, 0x15, 0xbd,
  0x1e, 0x07, 0x21, 0xbe, 0xea, 0x8f, 0x9a, 0x3d, 0x41, 0x04, 0x9d, 0x39,
  0x23, 0xf4, 0xbe, 0xbb, 0x95, 0x80, 0xd4, 0xbc, 0x1e, 0x9e, 0x4f, 0x3d,
  0x30, 0x41, 0x97, 0xbe, 0x6c, 0xc2, 0x93, 0x3e, 0x67, 0x8b, 0x02, 0xbe,
  0x84, 0x3c, 0x01, 0xbe, 0xe5, 0xdf, 0x3d, 0xbe, 0x6d, 0x23, 0x9f, 0x3e,
  0x39, 0xb9, 0xb9, 0xbd, 0xf0, 0x92, 0x5f, 0xbd, 0xc3, 0xc6, 0xf1, 0xbe,
  0xf0, 0x66, 0x29, 0xbe, 0xc0, 0x1e, 0xd0, 0xbe, 0x32, 0x1d, 0xe2, 0xbe,
  0x59, 0x6f, 0x84, 0xbe, 0x4f, 0x92, 0x4e, 0xbd, 0x5c, 0xbc, 0x4e, 0xbd,
  0x40, 0x1c, 0x00, 0x3e, 0x3a, 0xd7, 0x12, 0xbe, 0xae, 0x3c, 0x98, 0xbe,
  0xec, 0x20, 0x04, 0xbc, 0xdd, 0x2c, 0xdd, 0xbe, 0x7c, 0xfe, 0x34, 0x3d,
  0xaa, 0xcd, 0xa3, 0xbe, 0x34, 0xd5, 0x3c, 0xbc, 0x94, 0xb5, 0xd9, 0x3d,
  0xef, 0x50, 0x22, 0x3d, 0xc0, 0x87, 0x84, 0xbe, 0xd2, 0xad, 0x03, 0xbe,
  0x3c, 0x31, 0x39, 0x3d, 0x1d, 0x00, 0x74, 0xbc, 0xea, 0xb6, 0x80, 0xbd,
  0x6a, 0x8a, 0x3a, 0xbe, 0x21, 0x6d, 0x98, 0x3d, 0xcd, 0xfe, 0x6c, 0xbe,
  0x28, 0x44, 0x18, 0x3c, 0x8d, 0xc2, 0x47, 0x3e, 0xe5, 0xda, 0xc3, 0xbd,
  0x6b, 0xb7, 0x37, 0xbe, 0xe4, 0xd4, 0x94, 0x3d, 0x0f, 0x08, 0xb2, 0xbe,
  0xe8, 0x5b, 0xe3, 0x3d, 0x75, 0x59, 0x64, 0xbd, 0xc9, 0xf9, 0x6f, 0x3d,
  0xe4, 0x25, 0xe3, 0xbe, 0xc8, 0x54, 0x26, 0xbe, 0x19, 0xd5, 0xb9, 0x3d,
  0xa0, 0x44, 0x5c, 0xbe, 0xde, 0x58, 0x0b, 0x3e, 0x9d, 0x1a, 0xe6, 0xbe,
  0x5a, 0x30, 0xd1, 0xbd, 0x58, 0x4b, 0x9c, 0xbd, 0x89, 0xa3, 0xc0, 0xbe,
  0x14, 0x95, 0x72, 0x3e, 0xc4, 0x32, 0x8e, 0xbe, 0x56, 0xa2, 0x3f, 0x39,
  0x23, 0x84, 0x67, 0x3e, 0xad, 0xc4, 0x0d, 0xbf, 0x76, 0x82, 0xa4, 0xbd,
  0x1a, 0x4d, 0xea, 0xbe, 0x9c, 0x7f, 0x0e, 0xbe, 0x5b, 0x38, 0xa7, 0x3d,
  0x4e, 0x3b, 0x98, 0xbe, 0x6c, 0x9c, 0x0b, 0xbf, 0x21, 0xce, 0xcf, 0xbd,
  0x0b, 0x79, 0xf4, 0xbe, 0x6e, 0x3f, 0xdf, 0xbd, 0x3f, 0x1d, 0xbe, 0xbe,
  0x68, 0x89, 0xa4, 0xbd, 0xd3, 0xb2, 0x48, 0x3e, 0x55, 0x23, 0x85, 0xbd,
  0x3d, 0xd0, 0xb9, 0xbc, 0x20, 0xba, 0x9a, 0xbe, 0x0e, 0xb2, 0x36, 0xbe,
  0xee, 0xc4, 0x61, 0xbd, 0x0f, 0x71, 0x38, 0x3e, 0xaa, 0x29, 0x3d, 0xbe,
  0x41, 0x59, 0x0d, 0x3e, 0x4a, 0xa9, 0xd6, 0xbd, 0xcb, 0x27, 0x9a, 0x3e,
  0x2a, 0x9d, 0x25, 0xbf, 0x84, 0xa7, 0x97, 0x3d, 0xbc, 0xa2, 0xab, 0xbe,
  0x6f, 0xcd, 0xa9, 0xbd, 0xb3, 0xa4, 0x94, 0xbe, 0xb6, 0x13, 0xb7, 0xbe,
  0x30, 0x1b, 0x19, 0xbe, 0xf2, 0x50, 0xc0, 0xbd, 0x14, 0xa3, 0xfd, 0xbd,
  0xef, 0x22, 0xc5, 0x3d, 0x6e, 0x7d, 0xd1, 0xbe, 0x57, 0x84, 0x4d, 0xbe,
  0x73, 0x7d, 0x1e, 0xbd, 0xd5, 0xda, 0xda, 0xbe, 0x3a, 0xac, 0x40, 0xbb,
  0xa8, 0x83, 0x8b, 0xbe, 0x97, 0xf5, 0x51, 0x3e, 0xb3, 0xed, 0x9d, 0xbe,
  0xa5, 0x22, 0xaa, 0x3c, 0xf1, 0x12, 0xfc, 0xbc, 0xf1, 0x75, 0x55, 0xbe,
  0xf9, 0xb7, 0x87, 0x3e, 0x06, 0xba, 0x7c, 0xbd, 0x1a, 0x1f, 0x2f, 0x3e,
  0xea, 0x4c, 0x20, 0x3e, 0xdf, 0x3f, 0x8a, 0xbe, 0x22, 0xc2, 0xaa, 0x3e,
  0x20, 0xde, 0xa6, 0xbd, 0x58, 0x86, 0x7f, 0xbc, 0x69, 0xb7, 0x03, 0xbd,
  0x52, 0x40, 0x02, 0x3e, 0xa7, 0x7a, 0x82, 0xbe, 0x34, 0x19, 0x55, 0xbd,
  0x82, 0x6a, 0x48, 0xbf, 0xee, 0x38, 0x95, 0x3d, 0x86, 0x83, 0x03, 0x3e,
  0x71, 0x59, 0x2f, 0x3e, 0x71, 0x16, 0x7c, 0x3e, 0xf8, 0xf0, 0x9b, 0x3c,
  0x49, 0x8e, 0x19, 0x3e, 0xec, 0x5a, 0x1c, 0x3e, 0x07, 0x54, 0x29, 0xbf,
  0x5b, 0x05, 0xc4, 0xbb, 0x34, 0x15, 0x9f, 0xbc, 0xcc, 0x27, 0x66, 0xbe,
  0x51, 0x9b, 0x8f, 0x3e, 0x3a, 0x81, 0x94, 0x3b, 0xc8, 0xe6, 0x69, 0x3e,
  0x03, 0xc3, 0x0b, 0x3e, 0x2b, 0x3f, 0xd4, 0xbe, 0x69, 0x79, 0x41, 0xbe,
  0x14, 0x7a, 0x23, 0xbe, 0x14, 0x3a, 0x8d, 0x3e, 0x61, 0xa1, 0x6e, 0x3e,
  0x0f, 0xe2, 0x1d, 0xbe, 0xed, 0x8a, 0x0f, 0xbd, 0x63, 0x16, 0x09, 0xbe,
  0x35, 0x3d, 0x87, 0xbe, 0x47, 0xc7, 0x29, 0x3e, 0xef, 0x4f, 0xfa, 0xbd,
  0x23, 0x76, 0x33, 0x3e, 0x07, 0xf7, 0xc9, 0x3e, 0x74, 0x72, 0xdc, 0xbe,
  0x5c, 0xb1, 0xdd, 0xbb, 0xe5, 0x28, 0x0e, 0xbf, 0x18, 0xa2, 0xa6, 0x3c,
  0xd7, 0xbf, 0x1d, 0x3e, 0x47, 0xbb, 0x55, 0x3e, 0x73, 0xc4, 0x46, 0x3e,
  0x73, 0xc8, 0xdf, 0x3d, 0x37, 0x43, 0x26, 0x3d, 0x1c, 0x0d, 0xac, 0x3e,
  0xe5, 0x83, 0x34, 0x3e, 0x37, 0xf9, 0x5b, 0x3e, 0x3c, 0x08, 0x1d, 0x3e,
  0x0b, 0x5c, 0x21, 0x3e, 0x78, 0x8d, 0x68, 0x3e, 0x65, 0x3f, 0x14, 0xbd,
  0x7a, 0x16, 0x52, 0x3e, 0xbb, 0x47, 0x0c, 0xbe, 0x8e, 0x1b, 0x7d, 0xbd,
  0x5c, 0x34, 0x3e, 0xbe, 0x06, 0x3f, 0x99, 0x3d, 0x73, 0x27, 0xa9, 0x3d,
  0x52, 0x37, 0x31, 0xbe, 0x50, 0x66, 0x98, 0x3d, 0xc7, 0xd2, 0xa0, 0x3d,
  0x6b, 0xfd, 0x39, 0x3e, 0x97, 0xc2, 0x00, 0x3e, 0x4f, 0x99, 0xc3, 0xbe,
  0xf3, 0x61, 0x27, 0x3e, 0x9e, 0xf1, 0x61, 0x3e, 0xac, 0x9a, 0x07, 0x3e,
  0xbb, 0xfb, 0xfe, 0xbc, 0x36, 0x92, 0x94, 0x3a, 0x5e, 0xb8, 0x31, 0xbd,
  0x27, 0x2f, 0x4a, 0x3e, 0x24, 0x26, 0x23, 0xbf, 0xdb, 0x04, 0x81, 0x3e,
  0xdf, 0xa9, 0x69, 0x3d, 0x4d, 0x46, 0x83, 0x3e, 0x89, 0xec, 0x81, 0x3e,
  0x0d, 0xe9, 0x4a, 0x3e, 0x9c, 0x4c, 0x9f, 0x3d, 0xdd, 0xf2, 0x00, 0xbc,
  0xac, 0xf9, 0x10, 0xbf, 0x73, 0x13, 0x82, 0x3e, 0xe5, 0xf1, 0x1e, 0x3e,
  0xe8, 0x91, 0x2d, 0xbd, 0xd9, 0xe7, 0xe7, 0x3e, 0xd8, 0x77, 0xaa, 0x3e,
  0x91, 0xe9, 0xb0, 0x3e, 0x04, 0xf0, 0x85, 0xbe, 0x20, 0x59, 0xc1, 0x3d,
  0x24, 0x76, 0x59, 0xbc, 0xa9, 0x9c, 0x9e, 0x3e, 0xde, 0xb4, 0x1a, 0x3e,
  0xe6, 0xea, 0x94, 0x3e, 0x4e, 0x2d, 0x15, 0x3e, 0x61, 0xfb, 0xba, 0x3c,
  0xdc, 0x13, 0x81, 0xbe, 0x70, 0xb0, 0x79, 0x3e, 0x05, 0x9e, 0x52, 0xbe,
  0xd7, 0x57, 0x3e, 0x3e, 0x31, 0x3e, 0x73, 0xbc, 0xb1, 0x28, 0xbc, 0xbd,
  0xe8, 0x80, 0xb2, 0x3a, 0x4b, 0x7b, 0x60, 0x3e, 0x0b, 0x4e, 0x1d, 0xbe,
  0xe2, 0xb0, 0x8f, 0x3e, 0x2e, 0xb3, 0x1b, 0x3d, 0x41, 0x6d, 0x57, 0x3d,
  0x75, 0x64, 0xb6, 0x3d, 0xe4, 0x91, 0xca, 0xbe, 0x2f, 0xf3, 0x1a, 0xbd,
  0x2e, 0x68, 0x17, 0xbe, 0xec, 0x19, 0xdc, 0xbb, 0x01, 0xaf, 0x81, 0x3e,
  0xf5, 0x42, 0x6e, 0x3d, 0x0b, 0x8b, 0x79, 0xbc, 0xe6, 0xef, 0x04, 0x3e,
  0xe1, 0xa3, 0x03, 0xbe, 0x54, 0x18, 0x54, 0x3e, 0x1b, 0x76, 0xb5, 0xbd,
  0xaf, 0x9d, 0xb6, 0x3e, 0x3c, 0x59, 0xc9, 0x3e, 0xeb, 0xb2, 0x22, 0xbd,
  0x2a, 0xdf, 0xb9, 0xbb, 0x3e, 0xe6, 0xf2, 0x3d, 0xe1, 0x83, 0x83, 0xbd,
  0xd9, 0xe0, 0xb6, 0x3d, 0x33, 0x27, 0x86, 0x3d, 0xba, 0x7b, 0x14, 0x3e,
  0x96, 0x66, 0x33, 0x3c, 0xf8, 0x8c, 0xec, 0xbd, 0x22, 0x4d, 0xce, 0x3d,
  0x1f, 0x56, 0x20, 0x3e, 0x8e, 0x90, 0xe6, 0xbd, 0x5c, 0x04, 0x8e, 0xbd,
  0x42, 0x34, 0xb8, 0x3d, 0x3d, 0x9f, 0xf3, 0x3c, 0xaa, 0xfd, 0x9b, 0xbc,
  0x68, 0xb4, 0x78, 0xbe, 0x58, 0x76, 0x03, 0x3f, 0x16, 0xfa, 0xe9, 0xbd,
  0xcf, 0xc4, 0x0a, 0x3c, 0x1d, 0xca, 0xe4, 0xbd, 0x4c, 0x32, 0xd7, 0x3e,
  0xfd, 0x76, 0x39, 0xbe, 0xd5, 0xc1, 0x46, 0x3e, 0xfc, 0x88, 0x23, 0xbe,
  0x4d, 0xfc, 0x5f, 0xbc, 0x9a, 0xf0, 0x8c, 0xbe, 0x29, 0x1c, 0xcb, 0xbe,
  0x83, 0xfa, 0xf0, 0xbc, 0xed, 0xf8, 0x1e, 0x3e, 0x79, 0x3f, 0x80, 0xbd,
  0xc4, 0xa7, 0x64, 0x3e, 0x4c, 0x01, 0x03, 0xbe, 0xe0, 0xac, 0xe3, 0xbe,
  0x86, 0xd8, 0xc1, 0x3d, 0x4c, 0x4d, 0x07, 0xbf, 0x01, 0xdf, 0xb2, 0x3d,
  0x2f, 0x54, 0x00, 0xbf, 0xef, 0x97, 0x22, 0x3e, 0x18, 0x54, 0xfa, 0xbd,
  0xc7, 0x94, 0x32, 0xbd, 0x47, 0x1b, 0x12, 0xbd, 0x23, 0xbe, 0x8b, 0xbd,
  0x54, 0xdb, 0xf0, 0x3c, 0xfe, 0x68, 0x10, 0x3d, 0xbc, 0x82, 0x32, 0x3e,
  0x4a, 0xab, 0x92, 0x3d, 0x62, 0x82, 0xaa, 0x3e, 0xc3, 0x64, 0x08, 0xbe,
  0x26, 0x6e, 0xcf, 0x3d, 0xbf, 0xa3, 0x98, 0xbe, 0xe7, 0x94, 0x6e, 0xbd,
  0x80, 0xbc, 0xa6, 0xbd, 0xfa, 0xae, 0x1d, 0x3e, 0xf6, 0x58, 0x6b, 0xbe,
  0x6f, 0x6a, 0x6a, 0x3e, 0x2d, 0x13, 0x17, 0xbe, 0xe7, 0x4b, 0x64, 0xbe,
  0xa0, 0xec, 0xfc, 0xbc, 0x33, 0x50, 0xeb, 0xbe, 0xd8, 0x60, 0xdd, 0x3d,
  0xde, 0x3c, 0xf8, 0xbd, 0xc7, 0xd2, 0x9c, 0x3e, 0x55, 0x1c, 0xf3, 0xbd,
  0x22, 0xbd, 0x8a, 0xbe, 0x00, 0x87, 0xa9, 0x3e, 0xbd, 0x07, 0xb3, 0xbe,
  0x2c, 0x54, 0xd2, 0x3e, 0x0e, 0x89, 0x99, 0xbe, 0x29, 0x73, 0x1f, 0x3f,
  0x04, 0x70, 0x5d, 0x3e, 0x7c, 0xdf, 0xfe, 0xbd, 0x8d, 0xd3, 0xa7, 0xbd,
  0xf7, 0xc4, 0x63, 0xbe, 0x32, 0xd8, 0xc2, 0xbe, 0xfc, 0x5a, 0x81, 0xbe,
  0x08, 0x9d, 0xde, 0xbe, 0xa0, 0xf9, 0x71, 0xbe, 0xd6, 0x78, 0x0f, 0xbe,
  0xe1, 0x83, 0x9a, 0xbd, 0x83, 0xf4, 0x68, 0x3c, 0xb9, 0xd4, 0xb3, 0xbe,
  0x7c, 0x46, 0x6e, 0x3c, 0x81, 0xf4, 0xee, 0xbd, 0x92, 0x33, 0xe0, 0xbd,
  0xce, 0x8e, 0x30, 0xbf, 0xd9, 0x9c, 0x02, 0x3c, 0x84, 0x99, 0x0a, 0xbf,
  0xb9, 0x51, 0x40, 0x3e, 0x1f, 0xac, 0x36, 0xbe, 0xea, 0x4e, 0x3c, 0xbd,
  0xde, 0x2a, 0x9e, 0x3e, 0x66, 0x57, 0xc9, 0xbc, 0x25, 0xe7, 0x39, 0x3e,
  0x13, 0x11, 0x01, 0x3e, 0xf4, 0xed, 0x02, 0xbe, 0x8c, 0x86, 0x9e, 0xbe,
  0x16, 0xaa, 0x19, 0xbd, 0x45, 0x5b, 0xfe, 0x3c, 0xf1, 0x80, 0x41, 0xbd,
  0x0f, 0x1f, 0xc9, 0xbe, 0x34, 0xff, 0x1b, 0x3e, 0xcf, 0x52, 0x2b, 0xbe,
  0x48, 0x94, 0x07, 0xbe, 0x73, 0x18, 0x16, 0x3c, 0x1b, 0x9a, 0x0a, 0xbd,
  0x51, 0x61, 0x2d, 0xbd, 0x3f, 0x09, 0x07, 0x3c, 0x35, 0xd5, 0xe0, 0xbe,
  0x33, 0x3e, 0x14, 0xbe, 0x6d, 0x0c, 0xb8, 0xbd, 0x6d, 0x4d, 0x99, 0xbe,
  0x6f, 0x37, 0x0c, 0xbe, 0x18, 0xd5, 0x89, 0x3e, 0x5a, 0x63, 0xf8, 0xbe,
  0xb4, 0xce, 0x4c, 0x3e, 0xa2, 0x2e, 0x9d, 0xbe, 0x99, 0x4c, 0x66, 0x3e,
  0xa3, 0xb2, 0x8f, 0x3d, 0x2e, 0x02, 0x16, 0xbd, 0xbd, 0xed, 0xe4, 0xbe,
  0xfd, 0xeb, 0x61, 0xbe, 0xe8, 0x87, 0x98, 0xbc, 0x32, 0x63, 0x96, 0xbe,
  0x3c, 0x68, 0x91, 0xbe, 0x02, 0xcc, 0x97, 0xbe, 0x9f, 0x63, 0x0c, 0xbf,
  0x59, 0x33, 0x5e, 0x3e, 0x31, 0x19, 0x9b, 0x3d, 0x10, 0xe9, 0xc4, 0xbe,
  0xb6, 0xa8, 0x69, 0xbd, 0xfe, 0xfa, 0x11, 0xbf, 0xf8, 0xc2, 0x8b, 0xbc,
  0xc0, 0x7a, 0x02, 0xbf, 0xef, 0xc4, 0xe3, 0xbe, 0xd8, 0x2f, 0x1b, 0xbe,
  0xa2, 0xa3, 0x1c, 0x3e, 0x70, 0x26, 0xbf, 0xbd, 0x83, 0xa3, 0x88, 0xbe,
  0xc5, 0x97, 0x0d, 0xbe, 0x4a, 0xbb, 0xbc, 0x3d, 0xb7, 0x8a, 0x81, 0xbd,
  0x56, 0xa9, 0x2d, 0x3e, 0xd3, 0x45, 0x07, 0xbf, 0xb6, 0x74, 0xea, 0x3d,
  0x28, 0x10, 0x49, 0x3e, 0x42, 0x4e, 0x74, 0x3d, 0xa4, 0x3f, 0x54, 0x3d,
  0x22, 0x1b, 0x40, 0x3d, 0x13, 0xb7, 0xce, 0xbd, 0xd7, 0xd2, 0x60, 0x3e,
  0x43, 0xbf, 0x0b, 0xbf, 0x12, 0x3a, 0x75, 0x3e, 0x93, 0x85, 0x24, 0xbc,
  0xb5, 0x16, 0xe0, 0xbd, 0xfb, 0x2c, 0x13, 0x3e, 0xde, 0xa9, 0x12, 0xbe,
  0x9b, 0xd6, 0x80, 0x3d, 0x01, 0x2e, 0xb7, 0xbe, 0x89, 0x84, 0xc2, 0xbe,
  0x35, 0x71, 0x64, 0x3c, 0x80, 0x9c, 0xf6, 0x3d, 0x2f, 0xd5, 0x2f, 0xbe,
  0xda, 0xb7, 0x46, 0x3e, 0xac, 0xaf, 0xf9, 0xbd, 0xff, 0xe1, 0x8e, 0x3d,
  0x04, 0x3b, 0x60, 0x3e, 0xf1, 0x56, 0x0b, 0xbf, 0xdd, 0x88, 0x38, 0xbe,
  0xb2, 0x03, 0x18, 0xbd, 0x2b, 0x3a, 0xf2, 0xbd, 0xf8, 0xc6, 0xc8, 0x3d,
  0x67, 0x94, 0x45, 0xbe, 0xe7, 0x7c, 0xe5, 0x3d, 0xac, 0x97, 0x5e, 0x3e,
  0xf5, 0x58, 0x85, 0x3e, 0x80, 0x09, 0xab, 0xbd, 0xf3, 0x7e, 0x06, 0xbe,
  0xdd, 0x26, 0xcf, 0x3d, 0xbf, 0x5c, 0x35, 0xbe, 0x1f, 0x36, 0x1b, 0xbe,
  0x30, 0x8e, 0x8e, 0xbb, 0xb0, 0x21, 0xf0, 0xbe, 0x12, 0x7c, 0xb1, 0x3e,
  0xd4, 0x59, 0x34, 0x3e, 0x00, 0x1c, 0x1a, 0xbd, 0x94, 0xf7, 0xb6, 0x3d,
  0xbb, 0x4d, 0x0b, 0xbe, 0x1e, 0x98, 0xea, 0x3d, 0x85, 0xfc, 0xd3, 0x3c,
  0x0c, 0xad, 0xf6, 0xbb, 0x19, 0x21, 0x3e, 0x3e, 0x9e, 0x2d, 0x38, 0x3e,
  0x0c, 0x3a, 0x4e, 0x3e, 0x97, 0xda, 0xa3, 0x3e, 0xf5, 0x10, 0xc6, 0x3d,
  0x3f, 0xb0, 0xcc, 0x3d, 0xc0, 0xa2, 0xc4, 0xbd, 0x7a, 0xae, 0x8c, 0x3e,
  0xbe, 0xb1, 0x34, 0xbe, 0x16, 0xcd, 0x78, 0x3e, 0x72, 0x25, 0x4d, 0x3e,
  0x8c, 0x8f, 0x09, 0x3e, 0x6c, 0x3b, 0xcf, 0xbb, 0x07, 0x94, 0x3c, 0x3d,
  0x5b, 0x91, 0x86, 0x3e, 0x39, 0x98, 0x18, 0xbc, 0xe7, 0x5f, 0x34, 0xbd,
  0xfd, 0xae, 0xa5, 0x3e, 0x22, 0x15, 0x27, 0xbe, 0x52, 0x63, 0x94, 0xbd,
  0xce, 0xda, 0xab, 0x3d, 0x30, 0x4d, 0x5f, 0x3c, 0x6a, 0x5b, 0xe8, 0xbe,
  0x22, 0x76, 0x05, 0x3e, 0x69, 0x3b, 0xf4, 0xbe, 0x93, 0x28, 0x98, 0xbc,
  0x61, 0x5a, 0x3d, 0x3e, 0x5f, 0x86, 0x94, 0xbd, 0x0f, 0x00, 0xc9, 0x3e,
  0x36, 0x9f, 0x38, 0xbe, 0x49, 0xde, 0x4d, 0x3d, 0x0d, 0xc5, 0x36, 0x3d,
  0x83, 0x2f, 0x0e, 0xbf, 0xfd, 0x8f, 0x37, 0xbd, 0x4a, 0xc7, 0x8e, 0xbd,
  0xc7, 0x4d, 0x59, 0x3d, 0x3f, 0x0b, 0x3f, 0x3e, 0xf4, 0xd4, 0x35, 0xbe,
  0xcf, 0x2c, 0x03, 0xbe, 0x01, 0x62, 0x63, 0xbe, 0xc5, 0x9e, 0x5a, 0xbe,
  0x42, 0x75, 0x83, 0x3d, 0x61, 0x41, 0x83, 0xbd, 0x5d, 0x12, 0xb8, 0x3d,
  0x22, 0x59, 0x82, 0xbd, 0xda, 0xc5, 0x22, 0xbc, 0x60, 0x70, 0xcd, 0xbd,
  0x37, 0x0f, 0x5f, 0xbe, 0x75, 0x20, 0x37, 0x3e, 0xa7, 0xe6, 0x2e, 0x3e,
  0xe0, 0x7d, 0x10, 0x3d, 0x9c, 0xe3, 0xcb, 0xbc, 0xf6, 0x57, 0x01, 0x3e,
  0xeb, 0x65, 0xf2, 0x3d, 0x1d, 0xe3, 0x04, 0x3e, 0xef, 0xbb, 0x8d, 0xbd,
  0x74, 0x2d, 0x8c, 0x3e, 0x76, 0x9e, 0x3c, 0xbe, 0x5f, 0xb0, 0xd2, 0x3d,
  0x53, 0x91, 0xf1, 0xbd, 0xa4, 0x08, 0x98, 0xbd, 0xf5, 0xe1, 0x2f, 0x3e,
  0x6a, 0xf0, 0x27, 0x3e, 0x0e, 0xdc, 0x62, 0xbd, 0x69, 0xbf, 0x11, 0xbf,
  0x3b, 0x04, 0xfc, 0xbd, 0xa0, 0x65, 0x46, 0xb8, 0x5c, 0xca, 0xe9, 0xbe,
  0x76, 0xfc, 0x4f, 0x3d, 0x94, 0xf6, 0x51, 0xbe, 0x3a, 0xed, 0x3a, 0x3e,
  0x4f, 0x42, 0x7b, 0x3d, 0x75, 0x2c, 0x1a, 0xbf, 0x42, 0xc0, 0x49, 0xbb,
  0xd7, 0x6e, 0x06, 0xbf, 0xd1, 0xfe, 0x2f, 0xbe, 0x1a, 0x70, 0x6d, 0xbe,
  0xff, 0x3a, 0x80, 0xbe, 0x9c, 0x96, 0x76, 0xbe, 0x65, 0x91, 0xd4, 0xbd,
  0x21, 0x2d, 0xca, 0xbe, 0xc5, 0xf3, 0x86, 0x3d, 0x16, 0xac, 0x9d, 0xbe,
  0xc4, 0x05, 0x94, 0x3c, 0x02, 0x2a, 0x2b, 0x3d, 0xfb, 0x98, 0x4a, 0xbe,
  0x30, 0xe2, 0x01, 0xbe, 0x62, 0x86, 0xe6, 0xbd, 0xd3, 0x27, 0x1c, 0xbf,
  0x11, 0xbf, 0x42, 0x3d, 0x3e, 0x13, 0x40, 0xbd, 0xd9, 0x32, 0xfa, 0xbe,
  0x8c, 0xf5, 0xc1, 0x3d, 0xf1, 0xba, 0x81, 0xbe, 0x76, 0x65, 0x33, 0x3e,
  0xbb, 0x51, 0xfc, 0xbd, 0x81, 0x21, 0xb3, 0xbe, 0xa5, 0x7b, 0x89, 0xbe,
  0xb6, 0x2b, 0x0e, 0xbe, 0x27, 0xa4, 0x02, 0xbe, 0x26, 0x49, 0x99, 0x3c,
  0x6e, 0x77, 0xdd, 0xbe, 0xd1, 0x44, 0x93, 0xbe, 0x50, 0x40, 0x37, 0xbe,
  0x4b, 0xa1, 0x0b, 0xbf, 0x42, 0xd1, 0x56, 0x3e, 0xb2, 0xa6, 0xc7, 0xbe,
  0x0e, 0x6f, 0x81, 0xbd, 0x12, 0xd6, 0xeb, 0xbc, 0x6d, 0xb5, 0x85, 0xbe,
  0xb1, 0x33, 0x3b, 0xbe, 0x1a, 0xaa, 0x1b, 0xbf, 0xe8, 0x0b, 0xaa, 0xbe,
  0xc2, 0x19, 0x35, 0x3c, 0x66, 0x8a, 0xff, 0xbe, 0x0b, 0x85, 0x69, 0xbd,
  0x8d, 0x78, 0x8e, 0x3e, 0xc6, 0x2a, 0xa7, 0xbd, 0xb3, 0x71, 0x46, 0xbf,
  0xf4, 0x6c, 0x5c, 0x3e, 0x6b, 0x82, 0x9d, 0xbe, 0xcf, 0x13, 0x01, 0x3d,
  0x3d, 0x2e, 0x94, 0x3d, 0x6d, 0xca, 0xa0, 0x3d, 0xd7, 0xb3, 0xc7, 0x3c,
  0x19, 0x52, 0xf9, 0xbc, 0x3c, 0xdd, 0xa1, 0xbd, 0x72, 0xdd, 0x51, 0xbe,
  0xba, 0xbd, 0x85, 0xbe, 0x11, 0x24, 0x45, 0x3e, 0xe8, 0x73, 0xb1, 0x3d,
  0x85, 0x6b, 0x4b, 0xbe, 0x99, 0xe8, 0xf2, 0x3d, 0x35, 0x26, 0x98, 0x3d,
  0x41, 0x7f, 0x0e, 0x3e, 0x51, 0x1b, 0x52, 0xbe, 0x2a, 0x49, 0x1b, 0xbe,
  0x03, 0x84, 0x1b, 0xbd, 0x66, 0xe7, 0xd0, 0xbd, 0x0d, 0x8b, 0xaf, 0xbc,
  0xbf, 0x7e, 0x3a, 0xbd, 0x0c, 0x84, 0xf2, 0xbc, 0x62, 0x86, 0xa1, 0xbd,
  0x2d, 0x92, 0x60, 0xbd, 0xf7, 0x95, 0xb8, 0xbe, 0xb7, 0xed, 0x7e, 0x3e,
  0x3c, 0x8e, 0xf6, 0x39, 0x59, 0x0a, 0x5d, 0x3d, 0x1c, 0x15, 0xf0, 0x3d,
  0x14, 0x76, 0xea, 0xbd, 0x2b, 0x38, 0x9e, 0xbc, 0x55, 0xab, 0x45, 0x3d,
  0xd0, 0x81, 0x20, 0xbf, 0xdf, 0xc0, 0x15, 0x3d, 0x8e, 0x98, 0x1e, 0xbd,
  0x45, 0x88, 0xc2, 0x3d, 0xc3, 0xb1, 0x2e, 0x3e, 0xd3, 0x77, 0xf0, 0x3d,
  0x43, 0xff, 0x0b, 0x3d, 0xf0, 0x18, 0xb3, 0xbe, 0x7c, 0x5b, 0x0f, 0xbe,
  0x81, 0xad, 0x74, 0x3c, 0x0a, 0x96, 0x88, 0xbc, 0x37, 0xd0, 0x5e, 0x3e,
  0xf0, 0xe7, 0x13, 0x3e, 0x95, 0x14, 0x07, 0x3e, 0xcb, 0xc7, 0xa2, 0xbe,
  0xcb, 0xab, 0x72, 0x3d, 0x99, 0x5d, 0x80, 0xbd, 0x0f, 0xbb, 0xfa, 0xbc,
  0xe3, 0x68, 0x0c, 0x3e, 0xd1, 0x13, 0x13, 0x3e, 0x23, 0xc6, 0x2e, 0x3e,
  0x3b, 0x5c, 0x09, 0x3e, 0x64, 0xa6, 0x3b, 0x3e, 0xb7, 0xd9, 0x72, 0xbd,
  0xf1, 0x08, 0xdf, 0x3d, 0xa0, 0xb5, 0x5a, 0x3d, 0x00, 0x42, 0xff, 0x3d,
  0xa9, 0xe2, 0x28, 0xbe, 0x11, 0xc1, 0x26, 0xbe, 0x69, 0xf5, 0xb7, 0x3d,
  0x87, 0xc0, 0x4f, 0xbd, 0x5b, 0x8e, 0x90, 0x3d, 0x4a, 0x03, 0xde, 0xbd,
  0x44, 0x9f, 0x8e, 0xbd, 0xf7, 0x4e, 0x6c, 0xbd, 0x5a, 0x4e, 0x63, 0x3e,
  0xb9, 0x5b, 0x38, 0xbe, 0x22, 0xc0, 0x62, 0x3d, 0xa3, 0x56, 0x6d, 0xbe,
  0x95, 0x22, 0x70, 0x3d, 0x5a, 0x6d, 0xc6, 0xbd, 0x5c, 0x49, 0xb6, 0x3d,
  0x82, 0x57, 0x6d, 0x3c, 0xb1, 0xf0, 0x4d, 0x3e, 0xdd, 0x46, 0x96, 0x3c,
  0xe0, 0xf5, 0xc7, 0x3d, 0x05, 0xa0, 0x84, 0xbb, 0x5f, 0x01, 0x01, 0x3c,
  0x35, 0xa0, 0x7d, 0xbe, 0x75, 0x43, 0x90, 0x3e, 0xa5, 0x6c, 0x19, 0x3e,
  0x7c, 0xfe, 0x72, 0x3e, 0xe9, 0x0d, 0x6e, 0x3e, 0x0a, 0xd2, 0x86, 0x3d,
  0xbe, 0xd3, 0xc6, 0x3d, 0x4b, 0x54, 0x83, 0xbc, 0x2d, 0xee, 0x16, 0x3e,
  0xb2, 0x06, 0x77, 0x3d, 0x9e, 0x70, 0xa4, 0x3d, 0x4a, 0xbf, 0x13, 0x3e,
  0xef, 0x56, 0x70, 0x3e, 0x7d, 0xd7, 0x33, 0x3e, 0x52, 0x3b, 0x2d, 0x3e,
  0x11, 0x00, 0xd8, 0x3c, 0x9f, 0x46, 0x5a, 0xbc, 0x0d, 0xcb, 0x30, 0x3e,
  0xa0, 0xbe, 0x8d, 0x3e, 0x1b, 0xe1, 0x90, 0xbd, 0x4d, 0x1b, 0x10, 0x3e,
  0x6e, 0x93, 0xc7, 0x3d, 0x6f, 0x16, 0xd7, 0x3d, 0x56, 0x30, 0x77, 0x3e,
  0x90, 0x40, 0x92, 0xbe, 0x90, 0x36, 0x57, 0x3e, 0x43, 0x07, 0xb7, 0x3c,
  0xff, 0x92, 0x4f, 0x3e, 0xb8, 0x7b, 0x22, 0xbe, 0xb7, 0x73, 0x2b, 0x3e,
  0x2b, 0x61, 0x87, 0xbe, 0xcd, 0x94, 0x2a, 0x3d, 0x46, 0x16, 0x65, 0xbe,
  0xc2, 0xeb, 0x28, 0x3b, 0x74, 0xfb, 0xcb, 0x3d, 0x7b, 0xdf, 0x0b, 0x3e,
  0xaa, 0x78, 0xb3, 0x3e, 0xaa, 0x10, 0xc4, 0xbd, 0x5d, 0xe6, 0xbe, 0xbc,
  0x88, 0xab, 0x83, 0xbe, 0x55, 0xff, 0x3e, 0x3e, 0x5e, 0x1b, 0x96, 0xbc,
  0x5a, 0x7e, 0x14, 0x3e, 0x42, 0x0d, 0x00, 0xbd, 0xc3, 0xf9, 0x9a, 0xbb,
  0xcd, 0x39, 0x93, 0xbd, 0xc4, 0x77, 0x8a, 0x3d, 0xb1, 0x57, 0xc1, 0xbe,
  0xcc, 0xdb, 0x42, 0x3e, 0x4e, 0x49, 0xdb, 0x3d, 0xd0, 0xa7, 0xa2, 0xbd,
  0x79, 0x15, 0xb4, 0xbe, 0x7c, 0x00, 0x01, 0xbe, 0xd2, 0x36, 0x25, 0x3e,
  0xee, 0x39, 0x4c, 0x3e, 0x6a, 0x21, 0x7b, 0x3d, 0x25, 0xcd, 0x43, 0x3e,
  0x9a, 0x9c, 0x95, 0x3d, 0x94, 0xce, 0xe7, 0x3e, 0x0d, 0x4c, 0x52, 0x3e,
  0x9e, 0x92, 0x09, 0x3f, 0xd8, 0x83, 0x70, 0x3d, 0x32, 0x96, 0xc4, 0x3e,
  0x19, 0x14, 0xc8, 0xbd, 0x23, 0x7e, 0x8b, 0x3e, 0x02, 0x50, 0x81, 0x3c,
  0x37, 0x86, 0x81, 0x3e, 0x8e, 0x04, 0x20, 0xbe, 0x3b, 0xab, 0x90, 0xbe,
  0xd8, 0x1d, 0x01, 0x3e, 0x5e, 0x88, 0x22, 0x3e, 0x63, 0x36, 0xb2, 0xbd,
  0x8c, 0x5b, 0xba, 0x3c, 0xf1, 0xc5, 0xc4, 0x3d, 0x0c, 0x02, 0x46, 0x3d,
  0x72, 0x94, 0x47, 0x3e, 0xd8, 0x05, 0x45, 0xbe, 0xd8, 0x26, 0x73, 0x3e,
  0x10, 0x60, 0x8f, 0xbe, 0x4b, 0x3a, 0x35, 0x3c, 0xd0, 0x18, 0xbf, 0x3b,
  0xf3, 0xa2, 0xca, 0x3d, 0x53, 0x2a, 0x4f, 0x3d, 0x49, 0x44, 0x1a, 0xbe,
  0x24, 0x3f, 0x07, 0x3d, 0x46, 0x97, 0x6c, 0xbc, 0xa3, 0xaa, 0x8d, 0x3e,
  0x10, 0x67, 0x71, 0x3d, 0xba, 0x3c, 0x01, 0x3e, 0xab, 0xfc, 0x6f, 0xbe,
  0x13, 0x56, 0x6a, 0x3e, 0x55, 0x66, 0x61, 0xbe, 0xdc, 0xf9, 0x97, 0xbe,
  0xa6, 0xd0, 0x58, 0x3c, 0x1f, 0xf5, 0xdc, 0x3d, 0x93, 0x55, 0xb8, 0xbd,
  0xbf, 0xfa, 0x03, 0x3e, 0x34, 0x00, 0x21, 0xbe, 0xf1, 0xd2, 0x90, 0xbd,
  0x27, 0xcd, 0x60, 0xbe, 0xaf, 0xca, 0xd0, 0xbe, 0x7d, 0xe8, 0x0d, 0x3e,
  0x89, 0x72, 0x43, 0xbe, 0x9f, 0x15, 0x15, 0x3e, 0xf8, 0x5b, 0xc9, 0x3d,
  0x5f, 0x0b, 0xc6, 0xbe, 0xdc, 0x88, 0xae, 0x3e, 0x35, 0xbd, 0x6c, 0xbe,
  0x20, 0xfd, 0x09, 0x3e, 0x3e, 0x39, 0xd4, 0x3d, 0xf5, 0x3f, 0x18, 0x3f,
  0x61, 0xbe, 0x2a, 0xbc, 0xe7, 0xc0, 0xd5, 0x3e, 0xbe, 0x0b, 0x5f, 0xbe,
  0x66, 0x67, 0x03, 0x3e, 0xef, 0x37, 0x7c, 0x3d, 0xed, 0x74, 0x81, 0xbf,
  0xd4, 0x0c, 0xb9, 0xbc, 0xc8, 0xc2, 0x26, 0xbe, 0x4e, 0xe9, 0x04, 0xbe,
  0x9e, 0x2f, 0x2d, 0x3e, 0x7f, 0x37, 0xf8, 0xbd, 0x3a, 0x88, 0x8c, 0xbe,
  0xf3, 0xac, 0x3c, 0x3e, 0x83, 0x63, 0xe9, 0xbe, 0xdb, 0xe7, 0x10, 0xbb,
  0x68, 0xda, 0xa5, 0xbe, 0x04, 0xf1, 0xc8, 0xbb, 0x61, 0x28, 0x74, 0x3e,
  0x2d, 0x78, 0x89, 0xbe, 0xd1, 0xb2, 0xdd, 0x3d, 0xc1, 0x59, 0xe5, 0x3c,
  0x83, 0xa7, 0x4a, 0xbe, 0x52, 0x4c, 0x32, 0xbd, 0xd7, 0x2e, 0x06, 0x3d,
  0x67, 0x54, 0xa6, 0x3e, 0x82, 0x9f, 0x9a, 0x3e, 0x38, 0x6c, 0x04, 0xbf,
  0x8b, 0xbe, 0x6f, 0xbd, 0x3e, 0xce, 0x9a, 0xbe, 0xe2, 0x6a, 0x08, 0xbf,
  0xf0, 0x1a, 0x88, 0xbe, 0x21, 0xb0, 0x3b, 0xbe, 0x93, 0x3a, 0x3c, 0x3d,
  0x16, 0xca, 0x5e, 0xbd, 0x50, 0xa1, 0xf4, 0xbe, 0x7c, 0xd5, 0x4d, 0xbe,
  0xbb, 0x12, 0x95, 0xbc, 0xe6, 0xd8, 0xfd, 0xbe, 0xac, 0x88, 0xbb, 0xbe,
  0x8a, 0x80, 0x9e, 0xbe, 0x7a, 0xe9, 0x40, 0x3e, 0xdd, 0xd8, 0x46, 0x3e,
  0xb7, 0xf9, 0xbf, 0x3d, 0xa2, 0x8d, 0xd0, 0xbe, 0xe2, 0x77, 0x7d, 0x3e,
  0x8f, 0xe9, 0x05, 0xbf, 0xe5, 0x02, 0xef, 0x3d, 0x1e, 0xb2, 0x3b, 0xbf,
  0x04, 0xd6, 0x0d, 0xbd, 0xda, 0xb0, 0xdc, 0x3c, 0xe5, 0x0b, 0xb4, 0x3d,
  0x41, 0xe3, 0x38, 0x3e, 0x82, 0xf7, 0x28, 0xbd, 0xa0, 0x2f, 0x94, 0xbc,
  0xb1, 0x20, 0x23, 0x3e, 0xb4, 0x75, 0x88, 0x3e, 0x8a, 0xde, 0xb3, 0x3e,
  0x2b, 0x7d, 0x07, 0x3e, 0xec, 0x00, 0xcf, 0xbd, 0xc9, 0x92, 0x34, 0x3e,
  0xa5, 0x45, 0x7f, 0x3d, 0xb6, 0xc2, 0xa2, 0x3d, 0xa0, 0x5a, 0x85, 0xbd,
  0xdf, 0xdb, 0xa1, 0x3d, 0x1b, 0x3e, 0x04, 0xbe, 0x64, 0xc9, 0x72, 0x3e,
  0xa5, 0x01, 0x36, 0xbe, 0x1d, 0x97, 0xe6, 0xbc, 0xd8, 0xc0, 0x35, 0x3d,
  0x4e, 0x4e, 0xa1, 0xbe, 0xb2, 0x29, 0x52, 0x3d, 0xd2, 0x10, 0xc6, 0xbd,
  0x80, 0x8a, 0x89, 0xbe, 0xdb, 0xec, 0xe0, 0x3e, 0x45, 0x0a, 0xc0, 0xbd,
  0x5d, 0xa0, 0x54, 0x3e, 0xb5, 0x58, 0x66, 0x3d, 0x54, 0x4d, 0xb3, 0xbe,
  0xc4, 0xc1, 0xa6, 0x3e, 0x42, 0x95, 0xb8, 0x3d, 0xa2, 0x3e, 0x01, 0xbd,
  0xad, 0x98, 0xff, 0x3e, 0xd0, 0x4d, 0x58, 0xbe, 0x4d, 0x6c, 0x75, 0x3e,
  0xb3, 0xda, 0xfe, 0xbc, 0x31, 0x57, 0x10, 0xbf, 0x97, 0x12, 0xa4, 0x3e,
  0xa7, 0x96, 0xb8, 0xbd, 0x7a, 0xf2, 0xfe, 0x3e, 0xb9, 0xab, 0xbe, 0x3d,
  0xfc, 0xee, 0x77, 0x3e, 0x60, 0xf1, 0xf6, 0xbe, 0x4b, 0x83, 0x49, 0x3e,
  0x14, 0x78, 0x92, 0xbd, 0xa0, 0xa0, 0x57, 0xbb, 0x90, 0xf8, 0xc9, 0xbe,
  0x81, 0xa0, 0x85, 0x3c, 0x8f, 0x83, 0xd3, 0xbc, 0x8e, 0x92, 0xc6, 0x3d,
  0x71, 0x5d, 0x38, 0x3e, 0xcb, 0x19, 0x1e, 0x3e, 0xa2, 0x0b, 0x96, 0x3e,
  0x57, 0xa6, 0x18, 0x3d, 0xd9, 0x7a, 0x21, 0x3e, 0xa4, 0xb0, 0x05, 0x3e,
  0x92, 0x7c, 0x77, 0xbc, 0x80, 0x37, 0x5e, 0x3d, 0x5c, 0xad, 0xb2, 0x3c,
  0xa1, 0x3a, 0x9f, 0x3d, 0x92, 0xaa, 0x83, 0xbc, 0xf9, 0x56, 0xa7, 0xbd,
  0x6f, 0x78, 0x3c, 0x3e, 0x59, 0xfd, 0x6c, 0x3c, 0xfb, 0x61, 0x47, 0xbd,
  0xce, 0xc6, 0x89, 0xbe, 0x15, 0x30, 0x2c, 0xbd, 0xb8, 0x04, 0x7c, 0xbd,
  0x54, 0x7d, 0x47, 0x3d, 0xa6, 0x59, 0xde, 0xbd, 0x79, 0xb3, 0x35, 0x3d,
  0xc0, 0x9c, 0x2a, 0x3c, 0xc1, 0xc3, 0x74, 0x3c, 0x02, 0x97, 0x01, 0xbf,
  0xa9, 0xa8, 0x3e, 0xbe, 0x2e, 0xec, 0xc6, 0xbd, 0x29, 0x65, 0xb1, 0xbd,
  0x1c, 0x48, 0x39, 0xbe, 0xf5, 0x64, 0x41, 0xbe, 0xaf, 0xb3, 0xe9, 0x3c,
  0x33, 0x1e, 0xb0, 0x3d, 0xa2, 0xcc, 0xd9, 0xbe, 0x2f, 0xfe, 0x16, 0xbe,
  0x28, 0x05, 0x42, 0x3e, 0xaf, 0xa5, 0x92, 0xbe, 0xca, 0x7c, 0xd2, 0xbe,
  0x95, 0xf6, 0xc2, 0xbe, 0xbc, 0x46, 0x27, 0x3d, 0x77, 0x7e, 0xc5, 0x3d,
  0x37, 0xae, 0xbb, 0x3d, 0xb1, 0x6c, 0x92, 0xbd, 0x58, 0xa5, 0x5d, 0x3e,
  0xdc, 0xc8, 0x2e, 0x3e, 0x86, 0xc2, 0x23, 0x3e, 0xa6, 0xdd, 0xd5, 0xbe,
  0x39, 0x34, 0x1a, 0xbe, 0xec, 0x2e, 0x05, 0x3e, 0xd7, 0x66, 0xaa, 0xbd,
  0xbe, 0xfc, 0x97, 0x3e, 0xdc, 0x6c, 0x87, 0xbb, 0x72, 0xe9, 0x90, 0xbd,
  0x2c, 0x93, 0x79, 0x3c, 0x9a, 0x77, 0x77, 0x3d, 0x39, 0xba, 0xad, 0xbd,
  0x63, 0xb5, 0x51, 0x3e, 0x58, 0x41, 0xdd, 0xbc, 0xcb, 0x0c, 0x17, 0x3e,
  0x6a, 0x3d, 0xc5, 0xbd, 0x0c, 0xab, 0x82, 0xba, 0x80, 0x01, 0x51, 0xbe,
  0x5b, 0x07, 0xca, 0x3d, 0xe8, 0x95, 0xbe, 0x3d, 0x45, 0x02, 0x0c, 0xbe,
  0x43, 0xdf, 0x91, 0x3d, 0x3a, 0x2b, 0x2d, 0x3d, 0x4d, 0xd9, 0x3c, 0xbe,
  0xc8, 0x38, 0x16, 0xbe, 0x48, 0x0b, 0x4e, 0xbc, 0x14, 0xc6, 0x1d, 0xbc,
  0x77, 0x37, 0x00, 0x3d, 0xbb, 0x10, 0x09, 0xbf, 0xec, 0xca, 0xbb, 0x3d,
  0xa2, 0xf4, 0x92, 0xbe, 0xfd, 0x88, 0xa6, 0xbe, 0x30, 0xcc, 0xed, 0xbb,
  0x34, 0x6a, 0x4b, 0xbc, 0x8d, 0x08, 0x19, 0xbd, 0x2f, 0xc0, 0xe3, 0x3d,
  0x74, 0x94, 0x0f, 0xbf, 0x1b, 0xd5, 0x8b, 0x3c, 0xaa, 0xa6, 0x83, 0xbe,
  0x06, 0x7f, 0x0b, 0x3d, 0x74, 0x7e, 0x1a, 0x3e, 0xba, 0xf0, 0xa3, 0xbe,
  0x2a, 0xc5, 0xcc, 0x3d, 0xa7, 0x31, 0x5a, 0xbf, 0xa7, 0xce, 0x59, 0x3c,
  0x66, 0x92, 0x5a, 0xbd, 0xdb, 0xa5, 0x2d, 0x3e, 0xa9, 0xfe, 0x90, 0xbd,
  0x10, 0x3c, 0x50, 0xbe, 0xb5, 0xb9, 0xcd, 0x3d, 0x78, 0xca, 0x2e, 0xbd,
  0x2b, 0x65, 0x0f, 0xbd, 0x23, 0x17, 0xa3, 0xbc, 0x40, 0x89, 0x8b, 0xbd,
  0xc5, 0x39, 0x86, 0x3d, 0x37, 0x3b, 0xa4, 0xbd, 0x31, 0x4b, 0x92, 0xbe,
  0x02, 0xa1, 0x8c, 0x3b, 0x68, 0xcd, 0x3c, 0x3d, 0x94, 0x49, 0x15, 0x3d,
  0x6d, 0xcf, 0x02, 0x3e, 0x0d, 0xbc, 0xf7, 0xbd, 0xac, 0x88, 0x2f, 0xbe,
  0x8e, 0xf9, 0xad, 0xbd, 0x1c, 0xed, 0x9e, 0xbe, 0x9f, 0x5b, 0x46, 0xbe,
  0x03, 0xea, 0xa7, 0xbe, 0xcd, 0xc2, 0x0e, 0x3e, 0x2f, 0x9b, 0x4a, 0xbd,
  0x9e, 0xe5, 0x3d, 0xba, 0xa5, 0xf3, 0x54, 0xbe, 0xc6, 0x58, 0x96, 0xbd,
  0x11, 0xc1, 0xc6, 0xbd, 0x95, 0x17, 0xc3, 0xbd, 0xf8, 0x14, 0x32, 0xbd,
  0x78, 0x8f, 0xee, 0x3d, 0xe8, 0x75, 0xb1, 0xbc, 0xbd, 0xfb, 0xad, 0x3c,
  0xf0, 0x56, 0x30, 0xbd, 0x8c, 0x1f, 0x27, 0x3e, 0x2c, 0x5d, 0xea, 0x3d,
  0x70, 0x9a, 0x4b, 0x3c, 0x18, 0x58, 0x4f, 0xbe, 0xaa, 0x4d, 0xd3, 0xbd,
  0x87, 0x35, 0x85, 0xbe, 0xa1, 0x20, 0x6b, 0x3d, 0xf7, 0xae, 0xf5, 0xbc,
  0xd4, 0xcf, 0x36, 0x3e, 0x5b, 0x9c, 0x54, 0x3e, 0xad, 0x8d, 0x8b, 0x3e,
  0x1f, 0x88, 0x10, 0x3e, 0xd9, 0x12, 0x05, 0x3d, 0x4b, 0x8a, 0x4e, 0xbe,
  0x11, 0xf9, 0x9d, 0xbd, 0xd6, 0xa2, 0x21, 0x3e, 0x0a, 0x33, 0x63, 0xbe,
  0x8a, 0x18, 0x17, 0xbd, 0x4d, 0x89, 0x66, 0xbd, 0xa2, 0x22, 0xcf, 0x3c,
  0x2a, 0xc3, 0x63, 0x3c, 0xde, 0x94, 0x11, 0x3e, 0xb4, 0xd5, 0x9a, 0xbe,
  0xc2, 0x9e, 0x6e, 0xbe, 0x92, 0x3f, 0x5a, 0xbe, 0xf0, 0x2e, 0x65, 0x3b,
  0xad, 0x08, 0x76, 0xbe, 0xdd, 0x3f, 0x16, 0xbe, 0x21, 0xaa, 0x28, 0xbe,
  0x32, 0x63, 0x1e, 0xbc, 0x0c, 0x02, 0x7c, 0x3d, 0x32, 0x43, 0x57, 0xbe,
  0x9b, 0x1f, 0x0e, 0xbe, 0xa4, 0x5b, 0xf6, 0x3b, 0x8a, 0xb3, 0x90, 0xbd,
  0xcf, 0x0f, 0xd6, 0xbe, 0x50, 0xfb, 0x2d, 0xba, 0x68, 0x0d, 0x7a, 0xbe,
  0xab, 0xfe, 0xc1, 0x3d, 0x08, 0xb3, 0x8a, 0xbe, 0x92, 0xd7, 0x4c, 0x3d,
  0x18, 0xed, 0x06, 0x3e, 0x2b, 0x2b, 0xb8, 0x3d, 0x3b, 0x9b, 0x7c, 0xbe,
  0xa0, 0xb1, 0x05, 0xbe, 0x53, 0x9c, 0xfc, 0xbc, 0x55, 0xf4, 0x1d, 0x3d,
  0xc2, 0x64, 0x4c, 0xbd, 0x35, 0xab, 0x4f, 0x3d, 0xd0, 0x11, 0xdc, 0xbd,
  0xaf, 0x21, 0x9f, 0x3d, 0x6c, 0xc3, 0x9f, 0x3d, 0x67, 0x99, 0xa8, 0xbe,
  0xcc, 0xcc, 0x36, 0x3e, 0x22, 0x7e, 0x2b, 0xbe, 0x6e, 0xf3, 0xee, 0x3d,
  0x1b, 0x17, 0x12, 0xbe, 0x13, 0x73, 0xd0, 0xbd, 0xe3, 0x9f, 0x21, 0x3e,
  0x95, 0xe5, 0xef, 0x3d, 0x89, 0x68, 0x11, 0x3e, 0xd1, 0xb1, 0x47, 0xbe,
  0x51, 0x08, 0x5a, 0x3e, 0xb5, 0x11, 0x00, 0xbf, 0x74, 0x7e, 0x47, 0x3d,
  0xab, 0x0a, 0x1e, 0x3e, 0xd5, 0xa5, 0x84, 0xbd, 0x27, 0x77, 0xea, 0xbe,
  0x9e, 0x98, 0xcc, 0x3e, 0xbd, 0xff, 0xcc, 0xbe, 0xc7, 0xd8, 0x09, 0xbd,
  0x5a, 0x4d, 0x02, 0xbe, 0x28, 0x2c, 0x49, 0x3e, 0x3b, 0x02, 0x46, 0x3e,
  0x06, 0x1e, 0xfb, 0xbd, 0x42, 0xfb, 0x5e, 0xbe, 0xfa, 0x7f, 0x91, 0x3e,
  0x14, 0x90, 0x37, 0x3d, 0x5a, 0x42, 0xd1, 0xbd, 0xe0, 0x16, 0x85, 0xbc,
  0x80, 0xf6, 0x0b, 0xbe, 0x0a, 0x9f, 0x09, 0x3e, 0x42, 0x5e, 0x9b, 0xbd,
  0xd2, 0x17, 0xb2, 0x3d, 0xc2, 0x69, 0xed, 0xbe, 0x81, 0xe1, 0x46, 0x3e,
  0xdd, 0xd0, 0x32, 0xbd, 0xe6, 0x96, 0x06, 0x3e, 0xb0, 0xfe, 0x2d, 0xbd,
  0x28, 0x31, 0x8b, 0x3c, 0xa0, 0x42, 0x21, 0xbe, 0x15, 0x12, 0xd6, 0xbc,
  0x02, 0x38, 0x19, 0xbf, 0x41, 0xe9, 0x6f, 0x3e, 0xc9, 0x41, 0x42, 0xbe,
  0x5e, 0x85, 0xa5, 0x3d, 0x3e, 0x0d, 0x5c, 0xbe, 0x8d, 0xfe, 0x92, 0xbe,
  0xf2, 0x3c, 0xa8, 0xbd, 0x4b, 0x07, 0xe5, 0x3c, 0xe1, 0x1e, 0x96, 0xbd,
  0x16, 0x47, 0x7c, 0x3e, 0xcf, 0x7b, 0x18, 0xbe, 0xa1, 0x4c, 0x14, 0xbe,
  0x2d, 0x51, 0x51, 0xbe, 0xd6, 0x9f, 0xc6, 0xbe, 0x2b, 0xb3, 0x82, 0xbe,
  0xe8, 0x7b, 0x02, 0xbe, 0x8b, 0xe6, 0x46, 0x3e, 0xc9, 0x09, 0xae, 0xbe,
  0x10, 0x77, 0x8d, 0x3d, 0x75, 0x2f, 0xaa, 0xbe, 0xc2, 0x4f, 0x4a, 0xbe,
  0x8c, 0xd6, 0x06, 0xbe, 0xe7, 0x65, 0x93, 0xbe, 0x7c, 0xeb, 0xbd, 0xbd,
  0x15, 0x26, 0x4c, 0x3c, 0x2c, 0x6a, 0xb4, 0xbe, 0x8e, 0x23, 0x08, 0x3b,
  0x16, 0x04, 0x04, 0xbf, 0x0d, 0x52, 0xce, 0x3d, 0x22, 0x7e, 0x1b, 0xbe,
  0x99, 0xcd, 0x92, 0x3d, 0x25, 0x6e, 0xd2, 0xbe, 0xaa, 0x2b, 0x10, 0xbd,
  0xbb, 0x8a, 0x3a, 0xbe, 0x99, 0xf8, 0x36, 0xbe, 0x43, 0xf3, 0xaf, 0xbd,
  0xbe, 0x4a, 0x3a, 0x3d, 0x7c, 0x64, 0x28, 0x3e, 0x44, 0x5f, 0x58, 0xbd,
  0x04, 0x2b, 0x86, 0x3e, 0x4f, 0x0f, 0xad, 0xbe, 0xaf, 0x11, 0xa3, 0xbb,
  0x43, 0x10, 0xd8, 0xbd, 0xf5, 0x0d, 0xef, 0x3d, 0x74, 0x7f, 0xf7, 0xbe,
  0x49, 0x87, 0x7f, 0xbe, 0x26, 0x68, 0x8e, 0xbe, 0x65, 0x25, 0xc4, 0x3d,
  0x8b, 0xfc, 0xaf, 0xbe, 0x1f, 0xc3, 0x83, 0xbd, 0x45, 0x55, 0x9a, 0xbe,
  0x4b, 0xa9, 0x71, 0xbe, 0x60, 0x0c, 0xbc, 0xbd, 0x43, 0xd3, 0x0c, 0xbe,
  0x56, 0x81, 0x99, 0xbd, 0xd8, 0xaa, 0xb8, 0xbe, 0x80, 0xf3, 0x5b, 0xbd,
  0xb1, 0x5f, 0x28, 0xbe, 0x86, 0x7e, 0xb6, 0xbd, 0x5d, 0x1f, 0x53, 0xbe,
  0x7a, 0x33, 0x24, 0xbe, 0xa8, 0xa3, 0xa8, 0xbe, 0xb5, 0x17, 0xe4, 0xbd,
  0x32, 0xdd, 0x94, 0xbe, 0x0f, 0x7b, 0x3a, 0xbd, 0xbe, 0x04, 0x9d, 0xbe,
  0xa4, 0x97, 0xd9, 0x3d, 0x27, 0x12, 0x4e, 0xbf, 0xc0, 0xe0, 0xb9, 0xbd,
  0x26, 0x33, 0x15, 0xbc, 0xc5, 0x3e, 0x0f, 0xbc, 0x73, 0xe3, 0x21, 0xbf,
  0x33, 0xd4, 0x21, 0xbe, 0xf0, 0x0e, 0x81, 0xbe, 0xfa, 0xea, 0x18, 0x3e,
  0x11, 0x5c, 0x0f, 0xbe, 0xad, 0x6f, 0x6b, 0x3e, 0x5a, 0xc1, 0x29, 0x3e,
  0xf1, 0xe1, 0x98, 0xbd, 0x8c, 0x6c, 0xec, 0xbd, 0x76, 0x47, 0x56, 0xbd,
  0x32, 0xe9, 0x5d, 0xbe, 0x0c, 0xde, 0x42, 0xbe, 0x73, 0x0b, 0x5b, 0x3e,
  0xbe, 0x7a, 0x9e, 0xbe, 0x0f, 0x53, 0x6f, 0x3d, 0xe3, 0xbc, 0x33, 0xbe,
  0x0e, 0xc8, 0x93, 0x3e, 0xde, 0x04, 0x1f, 0xbe, 0xd6, 0xbe, 0x91, 0xbc,
  0x5a, 0xe7, 0x46, 0xbe, 0xad, 0x94, 0x09, 0x3e, 0x5b, 0xf7, 0x8f, 0xbd,
  0xbb, 0x08, 0x68, 0xbe, 0x2b, 0xae, 0xa9, 0xbe, 0xa5, 0x44, 0x47, 0xbe,
  0x6a, 0x74, 0x23, 0xbe, 0xba, 0x67, 0x2e, 0xbd, 0xdd, 0x73, 0x78, 0xbe,
  0xda, 0xf0, 0x84, 0xbe, 0xe4, 0xc5, 0x68, 0xbe, 0xef, 0x48, 0x14, 0xbd,
  0x67, 0x79, 0x80, 0xbe, 0xb6, 0xc8, 0xaf, 0xbd, 0xb9, 0x40, 0x7b, 0xbc,
  0x7c, 0xb5, 0xc8, 0x3d, 0x05, 0xc5, 0x40, 0xbd, 0x88, 0xc1, 0x7c, 0xbe,
  0xb7, 0x80, 0x58, 0x3d, 0xaf, 0xae, 0x16, 0x3d, 0xeb, 0x03, 0x55, 0xbd,
  0xa5, 0xcd, 0x1c, 0xbe, 0xdd, 0x03, 0x91, 0x3d, 0x96, 0x6b, 0x12, 0xbd,
  0x7f, 0x0a, 0xfd, 0xb9, 0x6f, 0xf8, 0xc8, 0xbe, 0x69, 0xa9, 0x2a, 0x3e,
  0x06, 0x8a, 0x3a, 0xbe, 0x72, 0x72, 0x4d, 0x3e, 0xbc, 0xf6, 0xe7, 0xbe,
  0x93, 0xd8, 0xdf, 0x3c, 0xd6, 0x4c, 0x6c, 0xbe, 0x22, 0x2a, 0x4d, 0x3e,
  0x9a, 0xe5, 0x8b, 0xbc, 0x67, 0xe2, 0x29, 0x3e, 0xd7, 0x9d, 0xf9, 0x3d,
  0x89, 0x73, 0xf0, 0xbb, 0xd9, 0xe7, 0xd4, 0x3d, 0x19, 0xd6, 0xc4, 0x3d,
  0x0b, 0xa7, 0x98, 0xbe, 0x4e, 0x5f, 0x03, 0x3d, 0xf0, 0x4e, 0x53, 0x3e,
  0xf5, 0x01, 0x4a, 0xbe, 0x11, 0xe4, 0xf5, 0x3d, 0x8b, 0x4a, 0xbd, 0xbd,
  0x04, 0x5f, 0x85, 0x3e, 0xbf, 0x76, 0x20, 0xbe, 0x3f, 0x3f, 0x7c, 0xbe,
  0x54, 0x4b, 0xa8, 0xbc, 0x86, 0xf9, 0x44, 0xbc, 0xe3, 0x4d, 0x7a, 0xbd,
  0xc8, 0x7a, 0x1e, 0xbe, 0xcb, 0x47, 0x56, 0xbe, 0xa7, 0x37, 0x04, 0xbe,
  0x08, 0x9d, 0x23, 0xbd, 0x07, 0x63, 0xf9, 0xbe, 0xa4, 0xfb, 0x4c, 0x3d,
  0x6c, 0x13, 0x9e, 0xbe, 0x87, 0xc7, 0x1c, 0x3c, 0x07, 0x37, 0xbc, 0xbd,
  0xf9, 0x93, 0xcb, 0xbb, 0x12, 0x83, 0x56, 0xbd, 0x9a, 0xb3, 0xef, 0xbb,
  0xe4, 0x6f, 0x09, 0xbe, 0xcc, 0x66, 0x0c, 0x3d, 0x9f, 0x50, 0x05, 0xbc,
  0x4b, 0xe5, 0x78, 0xbe, 0xf2, 0xee, 0x59, 0x3d, 0x41, 0xbf, 0xc1, 0xbd,
  0xdf, 0x2b, 0x3a, 0xbd, 0xa8, 0x9d, 0xaa, 0xbe, 0x28, 0xc1, 0x6d, 0xbd,
  0x7f, 0x3e, 0x29, 0x3e, 0xf6, 0x0d, 0x1d, 0xbf, 0x61, 0xdd, 0x68, 0x3d,
  0x6c, 0x93, 0x12, 0xbe, 0xdf, 0x63, 0x02, 0x3e, 0x51, 0x89, 0x5b, 0xbf,
  0x5f, 0x90, 0xc4, 0x3d, 0x90, 0x79, 0x96, 0xbe, 0x5d, 0x0e, 0x8c, 0x3a,
  0xe3, 0x7b, 0x15, 0xbd, 0x8d, 0x68, 0x8d, 0x3c, 0x5a, 0x70, 0x5e, 0x3e,
  0x6d, 0x00, 0x9b, 0x3d, 0xad, 0x5e, 0x0f, 0x3d, 0x9e, 0x28, 0x3d, 0x3e,
  0x45, 0xfe, 0xa3, 0xbd, 0x2c, 0x07, 0xe9, 0x3d, 0x47, 0xfc, 0xe6, 0x3d,
  0xd3, 0xe0, 0x1b, 0xbe, 0xc7, 0xfe, 0xa5, 0x3d, 0x91, 0xa9, 0x66, 0xbe,
  0x21, 0xfb, 0x41, 0x3e, 0xc8, 0x42, 0xb0, 0xbd, 0x11, 0xfa, 0x37, 0xbd,
  0x18, 0xd2, 0x8e, 0x3d, 0x36, 0x7c, 0x2e, 0x3d, 0x9f, 0x72, 0x2a, 0xbd,
  0x26, 0x8d, 0xb2, 0xbc, 0xf5, 0xdf, 0x07, 0x3c, 0xc1, 0x30, 0x70, 0xbe,
  0x1a, 0x15, 0x30, 0xbe, 0xb8, 0xa2, 0xc7, 0xbe, 0xe5, 0x6f, 0x54, 0x3d,
  0x56, 0xbc, 0x04, 0xbe, 0x0d, 0x50, 0xc5, 0xbd, 0x0f, 0x2c, 0x79, 0x3e,
  0xaf, 0xbf, 0xf5, 0x3d, 0xed, 0xec, 0x24, 0xbe, 0x9a, 0x48, 0x96, 0x3d,
  0xce, 0xa9, 0x89, 0xbe, 0xac, 0x4c, 0x64, 0x3e, 0x5e, 0x61, 0x59, 0xbc,
  0xa7, 0xe8, 0xcb, 0xbd, 0x29, 0xcb, 0x7e, 0x3d, 0x9e, 0xd8, 0x68, 0x3d,
  0x69, 0x5e, 0xd0, 0xbc, 0xc4, 0xf6, 0x7b, 0xbe, 0xf2, 0x31, 0xe6, 0x3d,
  0x5a, 0x84, 0x30, 0x3e, 0xa9, 0x43, 0x10, 0xbf, 0x86, 0x07, 0x9f, 0x3d,
  0xf2, 0xbb, 0x29, 0xbf, 0xee, 0xe4, 0x1a, 0x3e, 0x5e, 0x00, 0x84, 0xbf,
  0xa3, 0x39, 0x12, 0xbe, 0xa3, 0xdf, 0x11, 0xbe, 0x7a, 0x55, 0x34, 0x3e,
  0x19, 0x82, 0x7b, 0x3d, 0xf1, 0x1c, 0xb9, 0x3d, 0x24, 0x56, 0x1e, 0x3e,
  0x6f, 0x5d, 0xef, 0x3d, 0x37, 0xd6, 0xa8, 0x3d, 0x19, 0x79, 0x90, 0x3e,
  0x90, 0xb7, 0x4c, 0x3d, 0xcf, 0xd2, 0x46, 0xbe, 0xeb, 0xda, 0x86, 0x3e,
  0x67, 0xab, 0xe3, 0xbd, 0x5c, 0x0b, 0x22, 0x3e, 0x7d, 0xf6, 0xb2, 0x3d,
  0x9d, 0xf4, 0x88, 0x3e, 0xf1, 0x44, 0x18, 0xbc, 0x5b, 0x3a, 0x00, 0xbe,
  0x83, 0x8a, 0x34, 0x3e, 0xd3, 0x4b, 0x8f, 0x3d, 0x1d, 0x35, 0xf9, 0xbc,
  0x28, 0x8e, 0x7e, 0xbd, 0x08, 0x67, 0xac, 0xbd, 0xa2, 0x48, 0xb6, 0xbe,
  0xb1, 0x2f, 0x3f, 0xbe, 0xe8, 0xf1, 0xa4, 0xbe, 0x8f, 0x30, 0x0b, 0x3e,
  0x3b, 0x76, 0x48, 0xbd, 0xe4, 0x79, 0xf2, 0x3c, 0x60, 0x85, 0xaf, 0x3d,
  0xf5, 0xc5, 0x08, 0x3e, 0xa5, 0x31, 0x34, 0xbd, 0xff, 0x0b, 0xf8, 0x3d,
  0x5f, 0xa3, 0x31, 0xbe, 0xf8, 0x49, 0x26, 0x3b, 0x5a, 0x3b, 0x65, 0x3e,
  0xc7, 0x80, 0xec, 0x3c, 0x12, 0x5e, 0x9a, 0x3e, 0xbf, 0x73, 0x8b, 0x3d,
  0x3e, 0x4d, 0x40, 0x3e, 0xca, 0x05, 0xb2, 0x3c, 0xc2, 0x48, 0x0b, 0x3e,
  0xca, 0xdb, 0x50, 0xbe, 0xb2, 0xc2, 0x7c, 0x3d, 0xfd, 0xc1, 0x6a, 0x3e,
  0x18, 0x5d, 0x69, 0xbf, 0x83, 0x48, 0xb2, 0x3d, 0x57, 0x99, 0x01, 0xbf,
  0x23, 0x69, 0x44, 0xbf, 0x3d, 0xf9, 0x13, 0x3e, 0xd1, 0x5e, 0xaf, 0xbd,
  0x2f, 0xea, 0x87, 0x3b, 0x76, 0x7c, 0x57, 0xbe, 0xc0, 0x53, 0xc4, 0xbe,
  0x4b, 0x88, 0xf5, 0x3d, 0x1c, 0x98, 0x37, 0x3d, 0x25, 0x87, 0x2d, 0xbe,
  0xb4, 0x2a, 0x67, 0x3b, 0x50, 0x1a, 0x1c, 0x3d, 0x02, 0x17, 0x08, 0x3e,
  0xce, 0xe3, 0xca, 0x3d, 0x7c, 0xe4, 0x8a, 0xbe, 0x61, 0x4f, 0x68, 0x3d,
  0x6c, 0x28, 0x0f, 0xbe, 0x1b, 0xdb, 0x8a, 0x3e, 0x73, 0x2b, 0x79, 0x39,
  0x96, 0x5d, 0x54, 0x3e, 0x76, 0x86, 0xc2, 0xbd, 0x35, 0xe6, 0xcc, 0x3d,
  0x7e, 0x05, 0x92, 0xbe, 0xf1, 0xbf, 0x8d, 0x3d, 0x25, 0xe0, 0xc2, 0xbe,
  0x73, 0x9f, 0x88, 0x3e, 0xb5, 0x36, 0x2c, 0x3c, 0x46, 0xc3, 0x9f, 0x3d,
  0xa9, 0x20, 0x0b, 0xbe, 0xbe, 0x58, 0x04, 0x3e, 0x33, 0x57, 0x01, 0x3e,
  0x9d, 0x65, 0xba, 0x3d, 0x22, 0xd5, 0x5c, 0xbd, 0x6a, 0xf5, 0xd5, 0xbd,
  0x28, 0xfe, 0xec, 0xba, 0xd0, 0xff, 0x3f, 0x3d, 0xc0, 0xad, 0x95, 0x3e,
  0x8b, 0x8b, 0x3c, 0xbe, 0x57, 0xb6, 0x3b, 0x3e, 0x1e, 0x93, 0x28, 0xbe,
  0xf1, 0xb3, 0x57, 0x3e, 0x3f, 0xac, 0x56, 0xbe, 0x67, 0x72, 0x8f, 0x3e,
  0x7d, 0x5d, 0x4a, 0xbe, 0x01, 0x2b, 0x82, 0xbd, 0xea, 0xb3, 0x81, 0xbc,
  0x54, 0x1f, 0x4b, 0xbe, 0x0d, 0x3c, 0xdc, 0xbd, 0x09, 0x68, 0xbd, 0xbe,
  0xbd, 0x87, 0xc2, 0xbe, 0xd6, 0xf3, 0x87, 0x3e, 0xa0, 0x05, 0x8e, 0x3d,
  0xa4, 0x26, 0x2a, 0xbe, 0x4c, 0x61, 0xb8, 0xbd, 0x44, 0x96, 0x3c, 0xbe,
  0xc0, 0x13, 0x30, 0x3c, 0x92, 0xb3, 0x6c, 0xbe, 0x8c, 0xd2, 0x56, 0xbe,
  0x41, 0x58, 0x8f, 0x3e, 0x3a, 0x24, 0x8c, 0x3c, 0x6f, 0xc6, 0xac, 0x3d,
  0x03, 0x64, 0x1f, 0x3d, 0xc3, 0xdc, 0x56, 0xbe, 0xd3, 0xad, 0xa5, 0x3c,
  0x8b, 0x8a, 0x34, 0x3a, 0xf7, 0x19, 0x7a, 0x3e, 0xc8, 0x38, 0xa4, 0xbd,
  0x31, 0x6f, 0x82, 0x3d, 0x61, 0xe3, 0x18, 0xbd, 0xbe, 0xe1, 0x4a, 0xbd,
  0x93, 0x58, 0xae, 0x3d, 0x92, 0x95, 0x99, 0x3d, 0xde, 0x24, 0x11, 0xbd,
  0xd3, 0x87, 0x8d, 0x3e, 0x25, 0x26, 0x1e, 0x3e, 0x5d, 0xc0, 0xb9, 0x3c,
  0x5d, 0x36, 0x9d, 0x3c, 0xda, 0xad, 0x99, 0xbc, 0x7d, 0x33, 0x8e, 0x3c,
  0x52, 0xe7, 0xe4, 0x3d, 0x4f, 0xb9, 0x0c, 0x3e, 0xe7, 0xbf, 0x51, 0x3d,
  0xa9, 0xc6, 0x65, 0x3e, 0xe5, 0x93, 0x4c, 0x3e, 0x8d, 0xe1, 0x53, 0x3d,
  0xaf, 0x86, 0xc3, 0x3e, 0x6e, 0xd2, 0xd0, 0x3d, 0x65, 0x98, 0x01, 0x3e,
  0xa4, 0x5d, 0x3b, 0x3d, 0x15, 0xb8, 0x56, 0x3e, 0x9f, 0x88, 0xbc, 0x3c,
  0x0b, 0x81, 0x64, 0xbd, 0x75, 0x25, 0x3e, 0xbe, 0xcd, 0xaf, 0x7d, 0xbc,
  0x2a, 0x17, 0x06, 0xbf, 0xbf, 0x57, 0xe8, 0xbd, 0x00, 0x89, 0x12, 0xbf,
  0x43, 0xe1, 0xb4, 0xbd, 0x2c, 0xc7, 0x84, 0x3e, 0xa5, 0xd1, 0x9c, 0xbe,
  0x06, 0x4e, 0x67, 0xbe, 0x81, 0x4f, 0x9d, 0xbd, 0xc0, 0x2d, 0x9d, 0xbe,
  0x25, 0x26, 0xfa, 0xbc, 0xac, 0x35, 0x95, 0xbd, 0xd4, 0xb3, 0x96, 0x3d,
  0x81, 0x6b, 0x84, 0x3e, 0xa4, 0x0d, 0x57, 0xbe, 0xe0, 0xfe, 0xd5, 0xbd,
  0xac, 0x92, 0x02, 0x3e, 0xe6, 0xa4, 0xb8, 0xbe, 0x75, 0xbf, 0xf3, 0xbc,
  0xc6, 0xe4, 0x86, 0xbc, 0x25, 0xd9, 0xcc, 0xbd, 0x0e, 0x72, 0x2c, 0x3e,
  0xb1, 0xda, 0xaa, 0xbd, 0x8b, 0x3d, 0x6f, 0xbc, 0xbb, 0xd9, 0x9f, 0xbd,
  0xa0, 0xea, 0xea, 0xbc, 0x57, 0x8e, 0x55, 0x3d, 0x04, 0x43, 0x8a, 0x3a,
  0x0e, 0x8b, 0xab, 0x3e, 0x26, 0xd4, 0x44, 0x3e, 0xfc, 0xd4, 0x0c, 0xbd,
  0x92, 0xcd, 0xe1, 0x3c, 0x7b, 0x25, 0x97, 0x3e, 0xec, 0x37, 0xaf, 0xbd,
  0xcb, 0x9a, 0x84, 0x3d, 0xda, 0x82, 0x12, 0xbe, 0x19, 0x8d, 0x5f, 0x3e,
  0xc4, 0x90, 0x8a, 0x3d, 0x20, 0xec, 0x89, 0x3e, 0x0c, 0xba, 0x0f, 0x3e,
  0x03, 0x8d, 0xe2, 0x3d, 0xd1, 0xf1, 0x40, 0x3e, 0xfe, 0x2b, 0x0c, 0x3e,
  0x45, 0x75, 0x04, 0x3e, 0xa0, 0x31, 0xde, 0xbd, 0x5a, 0x12, 0xad, 0xbc,
  0x3d, 0xe9, 0x5b, 0xbd, 0x7c, 0x5d, 0x74, 0xbe, 0x9d, 0xf0, 0xae, 0xbd,
  0xcf, 0xaa, 0xc9, 0xbd, 0xab, 0x5c, 0x43, 0xbe, 0xff, 0x61, 0x16, 0xbf,
  0xf2, 0xc2, 0xcc, 0xbd, 0xaf, 0xfe, 0x41, 0xbe, 0x57, 0x51, 0x2b, 0xbe,
  0x42, 0xa1, 0xd2, 0xbd, 0x1b, 0xda, 0x14, 0xbe, 0x7d, 0xbd, 0xe8, 0xbd,
  0xc9, 0x9e, 0xe2, 0xbd, 0x9d, 0x09, 0xcc, 0xbc, 0x88, 0x1c, 0xc1, 0x3d,
  0x11, 0xb8, 0x2e, 0xbe, 0xb6, 0x01, 0x2f, 0xbd, 0x8c, 0xaa, 0x11, 0xbd,
  0xf9, 0xcc, 0x49, 0xbe, 0xd1, 0xa3, 0x53, 0xbe, 0x66, 0xb5, 0x53, 0xbe,
  0x90, 0x25, 0x64, 0xbd, 0xd9, 0x16, 0x1c, 0xbe, 0xaf, 0xd0, 0x40, 0x3c,
  0x52, 0xbf, 0xe5, 0x3a, 0x6b, 0x65, 0x54, 0xbe, 0x91, 0xc5, 0x49, 0xbd,
  0x52, 0xcf, 0xe5, 0xbb, 0x53, 0xd0, 0xc4, 0x3d, 0x3f, 0x7b, 0xbc, 0xbd,
  0x8b, 0x49, 0x33, 0xbc, 0x9d, 0x00, 0x01, 0x3d, 0xdd, 0xa4, 0x6f, 0x3e,
  0x95, 0xe2, 0x0c, 0xbd, 0x6a, 0x3e, 0xa6, 0x3e, 0x9c, 0xfe, 0x83, 0x3d,
  0xe9, 0xed, 0x89, 0x3c, 0x4e, 0xc1, 0x9f, 0xbd, 0x8a, 0xc3, 0x1a, 0x3d,
  0x27, 0x28, 0x12, 0xbe, 0xd2, 0xeb, 0xf6, 0x3d, 0x2e, 0x11, 0x73, 0x3e,
  0xb2, 0x53, 0x88, 0x3e, 0x46, 0x97, 0x82, 0x3d, 0x05, 0x61, 0xc9, 0x3c,
  0x18, 0x11, 0x79, 0x3e, 0xb4, 0xdc, 0xc5, 0x3d, 0x24, 0xfd, 0xe4, 0x3c,
  0x7e, 0x84, 0xc3, 0xbd, 0xa8, 0x7f, 0x8f, 0xbd, 0xe3, 0x8e, 0x6f, 0xbd,
  0x33, 0x4b, 0x7a, 0xbd, 0xeb, 0x0f, 0x02, 0xbe, 0xb8, 0x36, 0x2d, 0xbe,
  0xf6, 0x78, 0x94, 0xbe, 0xe0, 0x11, 0x4a, 0xbe, 0x67, 0x3f, 0xdd, 0x3b,
  0xfc, 0x05, 0x7a, 0xbe, 0xc4, 0x25, 0xa3, 0xbd, 0x33, 0x2d, 0x76, 0xbc,
  0x6c, 0x37, 0x4c, 0x3c, 0x45, 0x4a, 0x0e, 0x3e, 0xf4, 0xd6, 0x93, 0xbd,
  0x46, 0x30, 0xbe, 0xbd, 0x3d, 0x50, 0x8a, 0xbb, 0xfa, 0xe3, 0x29, 0xbd,
  0x01, 0x61, 0x11, 0x3e, 0x9f, 0x4f, 0xc1, 0xbd, 0x69, 0xc7, 0x9d, 0x3d,
  0x43, 0x46, 0x81, 0xbe, 0x01, 0xec, 0x61, 0xbd, 0x8b, 0xb5, 0x17, 0xbe,
  0x52, 0x1a, 0xe8, 0x3a, 0xd6, 0xc0, 0x15, 0x3d, 0x76, 0x78, 0xd3, 0x3d,
  0x1a, 0x97, 0x07, 0x3e, 0xbc, 0x63, 0x04, 0x3e, 0x68, 0xbb, 0x0c, 0x3d,
  0xd7, 0x7c, 0x97, 0xbe, 0xb3, 0x88, 0x4e, 0x3d, 0xee, 0x28, 0x98, 0x3e,
  0x8d, 0x47, 0x1b, 0x3e, 0xee, 0x69, 0x02, 0x3e, 0x0d, 0x92, 0x71, 0x3e,
  0x58, 0xa7, 0x82, 0x3c, 0xe9, 0x83, 0xc3, 0x3d, 0x82, 0x7c, 0x9c, 0xbd,
  0xc9, 0xdc, 0x83, 0x3d, 0xa5, 0x56, 0x74, 0x3e, 0xc9, 0xb8, 0x25, 0x3e,
  0x04, 0xf7, 0xd0, 0xbd, 0xec, 0x8c, 0xf2, 0x3d, 0xe6, 0x15, 0x6d, 0x3e,
  0xb4, 0x3e, 0x07, 0x3e, 0xbd, 0xcc, 0xaa, 0x3c, 0xab, 0xbe, 0x11, 0x3e,
  0x5a, 0x43, 0x03, 0xbe, 0xbd, 0x6b, 0x8c, 0x3d, 0xf5, 0x63, 0x11, 0xbd,
  0xbe, 0x84, 0x79, 0xbe, 0xb0, 0x62, 0x49, 0xbe, 0x43, 0xff, 0x10, 0x3e,
  0x2b, 0x31, 0xaa, 0xbd, 0x94, 0xf2, 0xc5, 0xbd, 0x77, 0x19, 0xeb, 0x3c,
  0xb7, 0x5d, 0x8f, 0xbe, 0x6e, 0x87, 0x08, 0x3d, 0xad, 0xb3, 0xbb, 0xbe,
  0x87, 0x0a, 0x8a, 0xbd, 0xc1, 0x04, 0x02, 0xbf, 0xc3, 0x7c, 0x5c, 0xbd,
  0xb6, 0xe2, 0x8e, 0xbd, 0xd8, 0xad, 0xf4, 0xbd, 0x5c, 0xe7, 0x7d, 0xbd,
  0x0f, 0x2a, 0x46, 0xbc, 0x7a, 0xf8, 0x12, 0x3e, 0x58, 0xd3, 0xdc, 0x3d,
  0x03, 0xb3, 0xd2, 0xbd, 0x89, 0x6f, 0x7d, 0xbd, 0xf1, 0x43, 0x0a, 0x3d,
  0xbc, 0xc8, 0x06, 0xbe, 0xaf, 0xb3, 0x2b, 0x3e, 0xdc, 0x58, 0xe7, 0xbc,
  0xd2, 0x42, 0x03, 0xbe, 0x44, 0x13, 0x40, 0x3d, 0x08, 0xd3, 0x65, 0x3d,
  0x6d, 0x6f, 0xa9, 0xbe, 0x9c, 0xff, 0x84, 0x3e, 0xf0, 0xaf, 0x44, 0xbe,
  0x71, 0x29, 0x8b, 0x3d, 0x90, 0x08, 0x63, 0xbe, 0x55, 0xa5, 0x9f, 0xbe,
  0xab, 0x38, 0xc0, 0x3c, 0xd9, 0x0e, 0x69, 0xbb, 0xf6, 0x01, 0x57, 0xbc,
  0xa6, 0x3b, 0xa9, 0x3e, 0xdd, 0x56, 0xf0, 0xbe, 0x7f, 0x6b, 0x92, 0x3c,
  0x77, 0xe7, 0xde, 0x3d, 0x2b, 0xd3, 0x1c, 0xbf, 0x02, 0x90, 0xfa, 0x3e,
  0x3a, 0xb9, 0xf8, 0xbd, 0x25, 0xac, 0xcd, 0x3e, 0xf6, 0x2f, 0xb5, 0xbe,
  0x51, 0xda, 0xbd, 0xbd, 0xae, 0x74, 0x0e, 0xbe, 0x0a, 0xa9, 0xa3, 0xbd,
  0x94, 0x2c, 0xe0, 0xbd, 0x3e, 0xb9, 0x79, 0xbe, 0x6f, 0xcb, 0x31, 0x3d,
  0x8d, 0x6f, 0x20, 0x3e, 0x50, 0x7d, 0x05, 0x3c, 0xc3, 0x73, 0xfd, 0xbd,
  0x6e, 0x36, 0x57, 0xbe, 0x06, 0xfc, 0x3c, 0x3e, 0x91, 0x22, 0x07, 0xbe,
  0x9c, 0xca, 0x19, 0x3e, 0x7f, 0x5d, 0xd6, 0xbe, 0x96, 0xfe, 0x8b, 0xbe,
  0xb4, 0x9f, 0xa3, 0x3d, 0xbb, 0xfa, 0x31, 0xbe, 0x84, 0xdc, 0x39, 0x3e,
  0xa5, 0xb3, 0xfe, 0x3d, 0xed, 0x1a, 0x3f, 0x3e, 0xb5, 0x2a, 0x1f, 0xbd,
  0xf2, 0x42, 0x2c, 0x3e, 0x40, 0x43, 0x89, 0xbe, 0x18, 0xf8, 0x7e, 0x3e,
  0x97, 0x72, 0xd2, 0xbe, 0x61, 0x2f, 0x10, 0x3c, 0x21, 0x63, 0xce, 0xbe,
  0x0c, 0x84, 0x39, 0xbe, 0x52, 0x21, 0x8d, 0xbe, 0x3b, 0x32, 0xb6, 0x3b,
  0x1a, 0x76, 0x47, 0xbe, 0x72, 0xe4, 0xbc, 0x3e, 0x8c, 0xfa, 0xf3, 0xbe,
  0x97, 0xf3, 0x79, 0xbe, 0xd2, 0x49, 0xa3, 0xbe, 0xd1, 0x6b, 0x26, 0xbf,
  0x23, 0x27, 0x7c, 0xbe, 0x14, 0x78, 0x98, 0xbe, 0xe8, 0x99, 0xe0, 0x3c,
  0xb3, 0xef, 0x28, 0xbb, 0x00, 0x2e, 0xf1, 0xbe, 0x27, 0x3b, 0xb5, 0xbe,
  0x32, 0x1b, 0x05, 0x3e, 0xf0, 0x83, 0x00, 0xbf, 0xe0, 0xc1, 0x52, 0xbe,
  0xfa, 0xe5, 0xbf, 0xbe, 0x76, 0xde, 0x8f, 0x3e, 0x92, 0x8a, 0xa4, 0xbc,
  0x14, 0x35, 0x24, 0x3e, 0xcb, 0xb7, 0x53, 0xbe, 0xdd, 0xea, 0x46, 0xbe,
  0xdb, 0xa3, 0x13, 0x3e, 0xf9, 0x08, 0xf5, 0xbd, 0x90, 0x53, 0x0f, 0xbf,
  0x1d, 0xad, 0x96, 0xbd, 0xe9, 0xc0, 0x4e, 0xbe, 0x75, 0xfe, 0xee, 0x3d,
  0x85, 0xa3, 0xa5, 0x3d, 0xe8, 0xf5, 0x02, 0x3e, 0x10, 0xbf, 0x62, 0x3e,
  0x4a, 0x75, 0x09, 0xbe, 0xdc, 0x6e, 0x3a, 0xbe, 0x99, 0x0d, 0x13, 0x3d,
  0x98, 0x69, 0xb5, 0xbd, 0x44, 0x6d, 0x9f, 0x3d, 0x50, 0xc6, 0xee, 0x3d,
  0x7b, 0x32, 0x27, 0xbe, 0x48, 0x97, 0xb2, 0xbd, 0x99, 0x0b, 0xda, 0x3c,
  0xc3, 0xbd, 0x94, 0x3d, 0x18, 0x36, 0x2c, 0x3c, 0x74, 0x43, 0x3d, 0xbd,
  0x72, 0x89, 0x95, 0x3d, 0xfd, 0x01, 0xc7, 0xbc, 0x6f, 0x17, 0x86, 0xbe,
  0x23, 0x7f, 0x11, 0xbd, 0xb2, 0x3f, 0xb7, 0xbd, 0xbc, 0x6d, 0x4a, 0xbe,
  0x71, 0x26, 0x00, 0xbd, 0xab, 0xf7, 0x6c, 0xbe, 0x16, 0xbb, 0x98, 0x3d,
  0x9f, 0xf8, 0x02, 0xbd, 0x7d, 0xa2, 0x83, 0x3d, 0x10, 0x7f, 0xd0, 0xbb,
  0x3f, 0x2f, 0x64, 0x3c, 0x1a, 0x64, 0x18, 0xbe, 0xbd, 0xe6, 0x96, 0x3e,
  0xc6, 0x4f, 0x54, 0xbe, 0x7b, 0x08, 0x81, 0x3d, 0x0c, 0x4d, 0x92, 0xbb,
  0x28, 0xd5, 0x52, 0xbe, 0xe8, 0x64, 0x28, 0x3e, 0x58, 0x61, 0x07, 0xbf,
  0xbd, 0x7c, 0x32, 0x3e, 0xa7, 0x55, 0x27, 0xbf, 0x9e, 0x72, 0xee, 0xba,
  0x43, 0xde, 0x28, 0x3d, 0x7f, 0x49, 0x46, 0xbe, 0xa4, 0x71, 0xb6, 0x3d,
  0x17, 0xfb, 0x68, 0xbe, 0x3e, 0xde, 0x9f, 0x3c, 0x67, 0xac, 0x11, 0xbf,
  0xb2, 0x02, 0x0d, 0xbe, 0xe0, 0xcb, 0xbd, 0xbc, 0x4e, 0x6e, 0xf1, 0x3b,
  0xe4, 0x11, 0x4f, 0xbc, 0x64, 0xdc, 0xfe, 0x3c, 0x47, 0x0f, 0x47, 0xbe,
  0x66, 0xf0, 0x2a, 0xbd, 0x68, 0xe7, 0x55, 0xbd, 0x62, 0xff, 0x3f, 0xbd,
  0xf2, 0x8b, 0x98, 0xbd, 0x3d, 0xd4, 0x73, 0xbd, 0xfb, 0x3d, 0x04, 0xbd,
  0x92, 0xb7, 0x7c, 0xbc, 0x3d, 0xe8, 0x02, 0x3d, 0x95, 0x83, 0x08, 0x3e,
  0x30, 0xaf, 0x59, 0xbd, 0x80, 0xa3, 0x4c, 0x3e, 0x7e, 0xb7, 0xb8, 0x3d,
  0x23, 0x5e, 0xdd, 0xbd, 0x92, 0x59, 0xa2, 0xbc, 0xd1, 0xe0, 0x64, 0x3d,
  0x03, 0x45, 0x8c, 0x3d, 0x49, 0xba, 0x55, 0x3d, 0x31, 0x3c, 0x2c, 0xbe,
  0xba, 0x04, 0x37, 0xbe, 0x45, 0x5c, 0xb1, 0x3d, 0x98, 0x54, 0x25, 0x3d,
  0x23, 0x64, 0x2e, 0x3c, 0x1c, 0xc7, 0xb9, 0xbd, 0x06, 0x53, 0x25, 0x3c,
  0x21, 0x9b, 0xfb, 0x3d, 0x21, 0x8d, 0x6b, 0x3d, 0xd9, 0x74, 0x6b, 0xbe,
  0xdd, 0x0e, 0x82, 0xbd, 0x25, 0x5c, 0xc4, 0x3d, 0xa1, 0x18, 0x38, 0x3d,
  0xd2, 0x61, 0x0b, 0xbe, 0x03, 0xd5, 0x3a, 0xbe, 0x2a, 0x74, 0xb0, 0xbd,
  0x74, 0xff, 0xc7, 0xbd, 0xfb, 0xa9, 0x54, 0x3e, 0xa6, 0xc4, 0x5b, 0x3c,
  0x8f, 0xd0, 0x5c, 0xbb, 0x9c, 0xd6, 0xf2, 0xbd, 0xae, 0xd5, 0x1f, 0xbe,
  0x25, 0x4f, 0x10, 0xbf, 0x46, 0xc8, 0xa6, 0xbd, 0x94, 0x66, 0x30, 0xbf,
  0x94, 0xc5, 0xf1, 0xbd, 0x4d, 0xe9, 0x36, 0x3e, 0x69, 0x07, 0xa6, 0x3c,
  0x14, 0x57, 0x6c, 0xbe, 0x95, 0x23, 0x96, 0x3b, 0x36, 0x6b, 0xb1, 0xbe,
  0xe3, 0x74, 0xfa, 0xbc, 0xde, 0x3c, 0xcc, 0xbe, 0x79, 0x7d, 0xb0, 0x3d,
  0x70, 0x83, 0x8f, 0xbe, 0x74, 0xc4, 0x47, 0x3e, 0x7c, 0xab, 0x9d, 0xbd,
  0xa5, 0x71, 0x37, 0x3d, 0x9a, 0xfb, 0xa9, 0x3b, 0xa5, 0x57, 0x8a, 0x3d,
  0xf1, 0x7c, 0x3b, 0xbd, 0xe4, 0xf8, 0x58, 0x3e, 0x68, 0x6a, 0x15, 0x3e,
  0x36, 0x9a, 0xf6, 0xbd, 0xf4, 0x72, 0x9a, 0x3d, 0x62, 0x80, 0x5f, 0xbd,
  0x1f, 0x9f, 0x79, 0xbd, 0x74, 0xdc, 0xce, 0xbd, 0x62, 0xc1, 0x4f, 0x3e,
  0x3b, 0x84, 0x93, 0xbe, 0xe7, 0x54, 0x57, 0x3e, 0x80, 0x94, 0xfd, 0xbd,
  0xd7, 0x1d, 0x27, 0x3d, 0x42, 0x2e, 0x62, 0xbe, 0x9b, 0xfc, 0x8f, 0xbb,
  0x48, 0x76, 0xa5, 0xbd, 0xb3, 0x39, 0x07, 0x3e, 0x9c, 0xa4, 0xe1, 0xbd,
  0xd5, 0x7f, 0x89, 0x3e, 0x0d, 0x2c, 0xe8, 0xbe, 0x58, 0x5a, 0xbe, 0x3d,
  0x74, 0x89, 0xdd, 0xba, 0x28, 0x51, 0x13, 0xbf, 0xea, 0x9f, 0x00, 0xbd,
  0xba, 0x80, 0xae, 0xbd, 0xc6, 0xc3, 0x4b, 0x3e, 0xce, 0xf2, 0x95, 0xbe,
  0x54, 0x32, 0xd1, 0xbd, 0x29, 0xfe, 0xce, 0xbe, 0x11, 0x47, 0x0e, 0xbe,
  0xde, 0xf0, 0x3e, 0xbe, 0x0b, 0x45, 0xc7, 0xbb, 0xa8, 0x67, 0x2f, 0xbf,
  0x8c, 0x7d, 0x0b, 0x3d, 0x56, 0xb8, 0x71, 0x3c, 0xba, 0xdf, 0xab, 0xbc,
  0xc3, 0x2f, 0x83, 0xbe, 0xcd, 0x39, 0x90, 0x3e, 0x00, 0xff, 0xf1, 0xbd,
  0x81, 0x02, 0x0d, 0x3e, 0x52, 0x94, 0xd3, 0xbe, 0xba, 0x35, 0xf9, 0xbd,
  0x97, 0xc5, 0x82, 0xbd, 0xc5, 0x21, 0x2d, 0x3e, 0xcb, 0x59, 0x70, 0xbd,
  0x72, 0x88, 0x25, 0x3e, 0x9f, 0xfb, 0x50, 0x3e, 0x27, 0xbf, 0x2b, 0x3e,
  0x22, 0x6e, 0x24, 0x3e, 0xb3, 0x26, 0x7a, 0x3d, 0x88, 0x05, 0xff, 0xbd,
  0xc2, 0x20, 0x97, 0xbd, 0x24, 0x6f, 0xba, 0x3d, 0x2f, 0x33, 0x98, 0x3d,
  0x42, 0x4a, 0xf3, 0xbd, 0xf3, 0x1c, 0x5d, 0xbd, 0xb9, 0xe3, 0x13, 0x3e,
  0x5f, 0x0e, 0xad, 0x3d, 0xe8, 0xdf, 0xb2, 0xbe, 0xe6, 0xf7, 0x5b, 0xbe,
  0x53, 0x53, 0x0b, 0xbe, 0xff, 0xe5, 0x54, 0xbc, 0xf6, 0x13, 0x41, 0x3d,
  0xb0, 0xbc, 0x60, 0xbd, 0x00, 0x5d, 0x8f, 0x3d, 0x61, 0x9f, 0x1e, 0xbe,
  0xec, 0x06, 0x92, 0xbd, 0x04, 0x1b, 0x5e, 0xbe, 0x9f, 0x96, 0xcf, 0xbd,
  0x69, 0x46, 0xa0, 0x3d, 0xb0, 0x14, 0xfd, 0x3d, 0xe8, 0xde, 0x16, 0xbf,
  0x2d, 0x1a, 0x3b, 0x3d, 0x8a, 0x8e, 0xc6, 0xbe, 0xd8, 0x08, 0xbf, 0xbd,
  0x1c, 0x66, 0xe2, 0x3d, 0x91, 0xda, 0x03, 0xbf, 0x11, 0x1b, 0x91, 0x3d,
  0xd0, 0xec, 0xa2, 0xbe, 0xd4, 0x61, 0xa4, 0xbd, 0x8e, 0x33, 0x3a, 0xbe,
  0x7c, 0x9f, 0x3b, 0xbe, 0xa2, 0x6b, 0x91, 0xbd, 0xa3, 0x94, 0xc0, 0xbd,
  0xad, 0xd4, 0x26, 0xbd, 0xfa, 0x37, 0x7f, 0x3e, 0x80, 0x78, 0x9b, 0x3c,
  0x6c, 0x38, 0x56, 0xbd, 0xa1, 0x14, 0x2d, 0x3e, 0x36, 0x86, 0x49, 0xbe,
  0x11, 0x14, 0xaf, 0x3e, 0xc4, 0x17, 0x9f, 0xbd, 0xa6, 0xe7, 0x96, 0x3d,
  0xb2, 0xc2, 0xd8, 0xbd, 0xd7, 0xfe, 0x7e, 0xbe, 0x24, 0x89, 0xd2, 0xbd,
  0x67, 0xc7, 0xa1, 0x3e, 0x35, 0x6a, 0x8f, 0xbe, 0x38, 0x99, 0x40, 0x3e,
  0x48, 0x6c, 0x34, 0x3e, 0xf8, 0x16, 0x18, 0xbe, 0x7f, 0x8f, 0x0d, 0xbe,
  0x21, 0x20, 0x30, 0xbe, 0x84, 0x2d, 0xf7, 0x3d, 0x60, 0x84, 0xbf, 0xbe,
  0xb5, 0xb2, 0x30, 0x3e, 0x40, 0xd2, 0x22, 0xbf, 0xc9, 0x0f, 0x22, 0x3e,
  0x5b, 0x0f, 0xed, 0x3d, 0x57, 0xe1, 0x29, 0x3d, 0xd5, 0x3b, 0x9c, 0x3d,
  0x89, 0xa3, 0xb1, 0x3b, 0xc5, 0xc1, 0xb4, 0x3c, 0x72, 0xa6, 0xca, 0x3e,
  0xc0, 0x07, 0xb3, 0xbe, 0x03, 0xf4, 0x39, 0x3e, 0x7c, 0xb3, 0x83, 0xbd,
  0xd1, 0x26, 0x9f, 0xbe, 0x96, 0x1a, 0x2c, 0x3e, 0x4c, 0xad, 0xfc, 0xbd,
  0x58, 0x92, 0xc5, 0x3d, 0x87, 0x83, 0x9e, 0xbe, 0x1c, 0x23, 0x13, 0x3e,
  0x87, 0xcd, 0x21, 0xbe, 0x65, 0x2f, 0x84, 0xbe, 0x69, 0xb4, 0x1c, 0x3c,
  0x2e, 0xef, 0x0c, 0xbf, 0xe1, 0x3f, 0x0a, 0xbd, 0x94, 0xf7, 0x18, 0xbd,
  0xd6, 0xa1, 0x64, 0xbf, 0xa1, 0x8d, 0xb1, 0xbd, 0xef, 0x34, 0xc0, 0xbd,
  0x42, 0x4c, 0xd5, 0x3b, 0x6c, 0x04, 0xb6, 0xbd, 0xca, 0xe9, 0xbb, 0xbd,
  0xa8, 0x6c, 0x6c, 0xbd, 0x60, 0x59, 0x19, 0x3e, 0x38, 0xb2, 0xda, 0xbc,
  0xd8, 0x7c, 0xa6, 0xbd, 0xaf, 0x6c, 0x09, 0xbe, 0x04, 0xd5, 0x2a, 0xbe,
  0x57, 0x24, 0xe7, 0xbd, 0x7a, 0x88, 0xc0, 0xbe, 0xb0, 0xcc, 0xba, 0x3d,
  0xc8, 0x3f, 0xa3, 0xbe, 0xf5, 0x8c, 0x52, 0x3e, 0x74, 0x0f, 0x7e, 0x3d,
  0x02, 0x6f, 0xb0, 0xbd, 0x29, 0x93, 0x2d, 0xbc, 0x40, 0x34, 0xc4, 0x3d,
  0x0f, 0x83, 0x98, 0x3d, 0xa6, 0xa7, 0x01, 0xbd, 0xcc, 0xb6, 0x0b, 0xbd,
  0x51, 0xa6, 0x87, 0x3c, 0xcf, 0xd5, 0x37, 0x3e, 0xa7, 0xd5, 0x8b, 0xbd,
  0xf5, 0xbb, 0xac, 0x3d, 0xbc, 0x93, 0x3a, 0x3c, 0x95, 0xe8, 0x53, 0x3e,
  0xe2, 0x07, 0x03, 0xbd, 0xf3, 0x97, 0x98, 0x3d, 0x59, 0x08, 0xa2, 0xbe,
  0x5d, 0xa7, 0x61, 0x3e, 0x2e, 0xeb, 0x88, 0xbe, 0x81, 0x38, 0x87, 0x3e,
  0xbe, 0xe9, 0x41, 0xbe, 0x1e, 0xae, 0x39, 0xbe, 0x03, 0x6b, 0x6f, 0xbe,
  0xab, 0xc1, 0x34, 0x3e, 0x72, 0xee, 0x1e, 0x3d, 0xed, 0x69, 0x9f, 0xbd,
  0x6e, 0xe0, 0x89, 0x3c, 0x1f, 0x3d, 0x83, 0xbe, 0xe2, 0x25, 0x5b, 0xbd,
  0xea, 0x44, 0x07, 0x3e, 0x06, 0xde, 0x72, 0x3d, 0xaf, 0xfd, 0x0c, 0xbf,
  0xbf, 0x78, 0x85, 0x3e, 0x09, 0x44, 0x69, 0xbe, 0xbf, 0x33, 0xbf, 0x3d,
  0xb0, 0x77, 0x24, 0x3e, 0x64, 0xf5, 0x00, 0x3e, 0x53, 0x5c, 0x2c, 0x3d,
  0x8f, 0x73, 0x9a, 0x3d, 0x57, 0x7e, 0xa0, 0x3d, 0x5f, 0xab, 0xf8, 0xbd,
  0xf7, 0x09, 0x29, 0xbe, 0x5c, 0x13, 0xb2, 0xbc, 0xf9, 0xee, 0xa9, 0x3d,
  0x7b, 0x10, 0x31, 0xbd, 0x84, 0x8e, 0x19, 0x3e, 0x4c, 0xcb, 0x1b, 0xbe,
  0x56, 0xe8, 0xee, 0x3d, 0xca, 0x11, 0x7d, 0xba, 0x1a, 0xa9, 0x20, 0xbd,
  0x64, 0x3e, 0xda, 0x3d, 0x57, 0xcb, 0x97, 0xbd, 0xcb, 0xb3, 0x04, 0xbd,
  0xac, 0xcc, 0xd0, 0xbd, 0xb0, 0x39, 0xf7, 0x39, 0x68, 0xdf, 0xbe, 0xbe,
  0x04, 0xa5, 0x4d, 0x3e, 0x5b, 0xe8, 0x96, 0xbe, 0x58, 0xc6, 0x88, 0x3d,
  0x87, 0xbb, 0x07, 0xbe, 0x34, 0xcc, 0x68, 0x3e, 0xad, 0x6b, 0x14, 0x3e,
  0x99, 0x1e, 0x57, 0x3e, 0x62, 0x8b, 0x91, 0x3d, 0x45, 0xba, 0x53, 0xbd,
  0x86, 0x85, 0xa4, 0xbe, 0x5f, 0x4f, 0x87, 0x3e, 0xa6, 0xc1, 0x46, 0x3e,
  0x14, 0xf4, 0xdf, 0xbd, 0x29, 0xe3, 0xad, 0x3e, 0xf6, 0x2b, 0x65, 0xbd,
  0x34, 0x97, 0x0d, 0x3d, 0xd7, 0x03, 0xc4, 0xbe, 0x73, 0xe3, 0xff, 0x3d,
  0x56, 0x03, 0x4a, 0x3d, 0x6b, 0xa0, 0xf6, 0x3d, 0x81, 0x70, 0x1c, 0x3a,
  0x4b, 0xd3, 0x18, 0xbe, 0xa0, 0x9e, 0x11, 0x3d, 0xb6, 0x65, 0x22, 0x3e,
  0xae, 0xe7, 0x0d, 0x3e, 0xd9, 0x02, 0xd4, 0xbc, 0x38, 0x9f, 0x46, 0x3e,
  0x21, 0x2a, 0xa0, 0xbc, 0x8c, 0x4e, 0x18, 0x3e, 0xb3, 0xa0, 0xb1, 0xbd,
  0xd3, 0x9c, 0x08, 0x3e, 0x60, 0x01, 0x88, 0x3c, 0xa0, 0x49, 0x10, 0x3e,
  0x45, 0x29, 0x8b, 0xbb, 0x07, 0xe4, 0xba, 0xbd, 0x81, 0x82, 0x9e, 0x3c,
  0x07, 0x75, 0xb6, 0x3d, 0x72, 0x73, 0x2f, 0x3d, 0xba, 0x40, 0x4d, 0x3e,
  0x84, 0xd5, 0xcf, 0xbd, 0x9a, 0x6a, 0x9c, 0x3e, 0x61, 0x8d, 0x8a, 0xbd,
  0xf0, 0x48, 0x80, 0x3e, 0xee, 0x67, 0x4b, 0xbe, 0xfa, 0xae, 0x6e, 0x3e,
  0x61, 0x1e, 0x4a, 0x3d, 0x91, 0x04, 0x74, 0x3d, 0xa4, 0xe9, 0xb6, 0xbe,
  0xcb, 0x85, 0xdc, 0xbb, 0x48, 0x28, 0x1a, 0xbe, 0x6d, 0x67, 0xe7, 0x3d,
  0x58, 0x71, 0x6f, 0x3d, 0x70, 0xc8, 0x5c, 0x3e, 0xd7, 0xbf, 0x25, 0x3e,
  0x58, 0x82, 0x11, 0x3e, 0x5d, 0x57, 0x8e, 0x3e, 0xd1, 0x6b, 0xd3, 0xbd,
  0x8c, 0x45, 0xcf, 0xbd, 0xf0, 0x45, 0x8e, 0x3e, 0xd7, 0x82, 0xf7, 0x3c,
  0x6b, 0x5a, 0xd0, 0xbe, 0xb5, 0x76, 0x83, 0xbb, 0x27, 0x52, 0xaf, 0xbd,
  0xa0, 0xbe, 0x98, 0x3e, 0x5d, 0x3d, 0x96, 0xbe, 0x15, 0xf2, 0x7f, 0x3e,
  0xc6, 0x2f, 0x25, 0xbd, 0xe9, 0x0b, 0x9e, 0xbe, 0x45, 0xa6, 0x23, 0xbd,
  0x52, 0x2d, 0xfd, 0xbe, 0xa5, 0x8d, 0x51, 0x3d, 0x10, 0xf1, 0x19, 0xbe,
  0xf7, 0x4d, 0x39, 0xbe, 0x4d, 0xa9, 0x2d, 0xbc, 0x54, 0x43, 0x79, 0x3d,
  0xeb, 0xab, 0xaa, 0xbc, 0x07, 0xa4, 0xa9, 0x3d, 0x3f, 0x28, 0xfa, 0xbd,
  0xa6, 0x24, 0xfd, 0xbb, 0x81, 0xf7, 0xb5, 0xbe, 0x68, 0xec, 0x52, 0x3e,
  0x03, 0x79, 0xe0, 0x3d, 0x32, 0x0e, 0x45, 0xbc, 0xd7, 0xe9, 0xb0, 0x3d,
  0x6d, 0x0f, 0xdb, 0x3d, 0x32, 0x82, 0x68, 0x3b, 0x0b, 0x1b, 0x1f, 0xbb,
  0x67, 0x7d, 0x1a, 0xbe, 0x88, 0x12, 0x2e, 0x3d, 0xd8, 0xb2, 0x8e, 0x3e,
  0x4e, 0xac, 0x4f, 0x3e, 0x87, 0x3e, 0x27, 0x3e, 0xa0, 0x2f, 0x63, 0x3e,
  0x12, 0x22, 0x0d, 0xbe, 0x32, 0xe5, 0x5b, 0x3d, 0xa7, 0x47, 0x50, 0xbd,
  0x56, 0x93, 0xa3, 0xbe, 0x3a, 0xcc, 0xa5, 0x3d, 0xe8, 0x3f, 0xd5, 0xbc,
  0x1e, 0xa3, 0x2a, 0xbd, 0xf2, 0xcf, 0x90, 0xbe, 0x12, 0xd3, 0x7a, 0x3d,
  0x43, 0x25, 0x27, 0x3e, 0xac, 0xce, 0x7d, 0x3e, 0x03, 0xa4, 0x8e, 0x3e,
  0x50, 0x0c, 0xa0, 0x3e, 0xe9, 0x7f, 0x65, 0xbe, 0x1d, 0x38, 0x71, 0x3e,
  0x76, 0x9e, 0x61, 0xbd, 0x60, 0x0e, 0x71, 0xbe, 0xbd, 0x87, 0x11, 0xbe,
  0x61, 0x29, 0xdf, 0x3b, 0xda, 0x8f, 0xde, 0x3d, 0xbc, 0xf3, 0x46, 0x3d,
  0xbe, 0x96, 0xe6, 0xbe, 0x80, 0xba, 0x47, 0xbd, 0x19, 0x16, 0x03, 0x3d,
  0xc9, 0x52, 0x2b, 0xbe, 0xef, 0x0a, 0xbd, 0xbd, 0x49, 0x94, 0x56, 0xbe,
  0x83, 0xd4, 0xf4, 0xbe, 0xaf, 0xb1, 0x62, 0x3e, 0x99, 0x25, 0x31, 0xbe,
  0x6b, 0xa6, 0x34, 0xbe, 0xd7, 0x51, 0x49, 0x3d, 0xb2, 0x11, 0x10, 0xbf,
  0x3f, 0x97, 0x0a, 0x3a, 0xa3, 0x99, 0x6b, 0xbe, 0x64, 0x28, 0x00, 0xbf,
  0xcd, 0xbd, 0x95, 0x3e, 0x76, 0x21, 0x15, 0xbe, 0xee, 0xf8, 0xc9, 0x3d,
  0x9f, 0x84, 0xe8, 0xbd, 0x8e, 0xea, 0x0b, 0xbf, 0x24, 0x39, 0x37, 0xbd,
  0x7f, 0xdb, 0x77, 0x3d, 0x02, 0x5d, 0xd1, 0x3d, 0xc5, 0x6f, 0x7e, 0x3e,
  0x8d, 0xdf, 0xb0, 0xbe, 0x8f, 0x7d, 0x0b, 0xbe, 0x2c, 0xd1, 0x38, 0xbc,
  0xbe, 0x6b, 0xd2, 0xbe, 0x37, 0x1c, 0xd9, 0x3d, 0xc9, 0x75, 0x5f, 0xbe,
  0xa9, 0x47, 0x12, 0x3e, 0xae, 0xa2, 0x88, 0x3e, 0xa9, 0xc2, 0x9d, 0xbd,
  0xb7, 0xca, 0x0a, 0xbe, 0xb5, 0xe0, 0xd9, 0xbd, 0x5d, 0x6c, 0x03, 0xbe,
  0x4f, 0x5f, 0x2e, 0x3d, 0x6d, 0x0f, 0xcf, 0xbc, 0xf6, 0x95, 0x2f, 0x3e,
  0x07, 0x01, 0x72, 0x3d, 0x89, 0xfa, 0x05, 0xbf, 0xc3, 0x82, 0x16, 0x3c,
  0xbb, 0xb4, 0xef, 0x3d, 0xaa, 0xb9, 0xa1, 0xbe, 0xdf, 0xa8, 0x81, 0xbe,
  0xaf, 0x8b, 0xfb, 0xbd, 0xa8, 0x43, 0xf9, 0x3c, 0x69, 0x6c, 0xa0, 0xbe,
  0x8c, 0x00, 0xb6, 0xbe, 0x03, 0x6a, 0x61, 0x3e, 0x36, 0x75, 0x04, 0x3d,
  0x8c, 0xf8, 0x02, 0x3d, 0x51, 0x91, 0xcc, 0xbd, 0x23, 0xfb, 0x44, 0x3e,
  0xd9, 0x36, 0x39, 0x3e, 0x7c, 0x08, 0x08, 0xbc, 0x41, 0xec, 0x72, 0xbe,
  0x39, 0x0e, 0xd2, 0xbd, 0x79, 0x6a, 0x79, 0xbc, 0x7c, 0xf9, 0xfa, 0xbd,
  0xb2, 0xc3, 0x58, 0xbe, 0x7f, 0x9e, 0x3b, 0xbe, 0x93, 0xd9, 0x9c, 0xbd,
  0x22, 0xed, 0xd0, 0x3d, 0x69, 0x0f, 0xa7, 0xbe, 0x0a, 0x0c, 0x0d, 0xbe,
  0xc6, 0xfe, 0x62, 0xbd, 0x7f, 0xde, 0x34, 0xbd, 0xb7, 0xa8, 0x28, 0xbe,
  0x0a, 0xc4, 0x8f, 0xbd, 0x93, 0x2e, 0x34, 0xbc, 0x40, 0xc0, 0xd3, 0x3d,
  0xa6, 0xd3, 0xad, 0xbe, 0x1e, 0xa7, 0x7f, 0xbe, 0x82, 0xdb, 0x1a, 0x3e,
  0x6a, 0x5b, 0xab, 0xbe, 0xbb, 0x6f, 0x0d, 0xbe, 0xe1, 0x62, 0x81, 0xbe,
  0x23, 0xd7, 0x0d, 0xbe, 0xe4, 0x22, 0x53, 0xbe, 0x8f, 0x90, 0x7c, 0x3b,
  0xd7, 0x17, 0xc0, 0xbd, 0x52, 0x94, 0x80, 0xbe, 0xc7, 0xc0, 0xdb, 0xbd,
  0x86, 0x64, 0x8e, 0xbc, 0x49, 0x12, 0xac, 0xbd, 0xb7, 0xbc, 0x1c, 0x3d,
  0x65, 0xd3, 0x5d, 0xbc, 0x54, 0x4a, 0x83, 0xbe, 0x0c, 0x6a, 0x39, 0xbe,
  0x6b, 0x48, 0x93, 0xbd, 0x07, 0xf1, 0x2c, 0xbe, 0xd0, 0x97, 0x83, 0xbc,
  0x3b, 0xde, 0x7b, 0xbe, 0x2d, 0x75, 0x69, 0xbd, 0x93, 0xe0, 0x4d, 0xbe,
  0x8d, 0xba, 0x18, 0x3e, 0xfb, 0x0e, 0xbb, 0xbc, 0xe6, 0x3e, 0xf3, 0xbe,
  0x0c, 0x91, 0xa1, 0x3e, 0x5a, 0xc8, 0x9e, 0xbe, 0x68, 0xb2, 0x39, 0x3e,
  0xc9, 0xcc, 0x3b, 0x3e, 0x7b, 0x8e, 0x26, 0xbf, 0x7b, 0x7b, 0xb0, 0xbd,
  0x8e, 0xf5, 0x0d, 0xbe, 0x44, 0xd3, 0x8d, 0xbe, 0xc1, 0x6d, 0x2e, 0x3e,
  0x57, 0xe4, 0x3a, 0xbe, 0x5d, 0xf3, 0x74, 0xbe, 0xd7, 0x10, 0x9f, 0x3c,
  0xc8, 0x56, 0xbe, 0xbe, 0xd0, 0xd2, 0x7d, 0xbd, 0xa7, 0xc0, 0x12, 0xbe,
  0xec, 0xc8, 0xc4, 0xbe, 0xb5, 0x99, 0x17, 0x3c, 0xda, 0xce, 0x86, 0xbe,
  0xa3, 0xea, 0x54, 0xbd, 0x00, 0xda, 0x99, 0xbe, 0x92, 0xb4, 0xce, 0xbe,
  0xb0, 0x95, 0xe0, 0xbd, 0x11, 0x5b, 0x21, 0xbe, 0x1c, 0xe7, 0x2c, 0xbd,
  0x0c, 0x98, 0xfd, 0xbd, 0x00, 0xe7, 0xe3, 0xbd, 0xd3, 0x8d, 0x3a, 0xbc,
  0xa9, 0xa3, 0xdd, 0xbe, 0xeb, 0xed, 0x81, 0xbe, 0x75, 0x71, 0xcf, 0x3d,
  0xdb, 0x56, 0x49, 0xbe, 0x89, 0x00, 0x58, 0xbd, 0x15, 0x31, 0x81, 0xbd,
  0x80, 0x6a, 0x05, 0xbe, 0x39, 0x80, 0x11, 0xbd, 0x37, 0x17, 0xea, 0xbe,
  0xf2, 0x0b, 0xd1, 0xbc, 0x0c, 0x79, 0xb6, 0xbd, 0x90, 0x63, 0x92, 0xbb,
  0xba, 0xa1, 0xa1, 0x3d, 0x88, 0x1c, 0x32, 0xbe, 0xd7, 0x9f, 0x18, 0xbe,
  0x6a, 0xf2, 0x35, 0xbe, 0xe4, 0x4d, 0x83, 0x3c, 0x8a, 0xfe, 0xff, 0xff,
  0x04, 0x00, 0x00, 0x00, 0x08, 0x00, 0x00, 0x00, 0xff, 0xff, 0xff, 0xff,
  0x20, 0x01, 0x00, 0x00, 0x9e, 0xfe, 0xff, 0xff, 0x04, 0x00, 0x00, 0x00,
  0x28, 0x00, 0x00, 0x00, 0xf1, 0xb4, 0xbc, 0x3b, 0x77, 0xaf, 0xa0, 0xbd,
  0xc5, 0x5c, 0x1c, 0x3c, 0x14, 0x0f, 0x5f, 0x3d, 0x36, 0xb0, 0xa0, 0xbc,
  0xdb, 0xca, 0xde, 0x3b, 0x1a, 0xad, 0xd8, 0x3b, 0x0c, 0x68, 0x97, 0x3c,
  0x1b, 0xc9, 0x43, 0x3c, 0x10, 0xf7, 0xdc, 0x39, 0xd2, 0xfe, 0xff, 0xff,
  0x04, 0x00, 0x00, 0x00, 0x20, 0x01, 0x00, 0x00, 0x80, 0x48, 0x59, 0x3f,
  0x3f, 0x49, 0x4e, 0x3f, 0x4c, 0xb8, 0x5f, 0x3f, 0x31, 0x37, 0x5a, 0x3d,
  0xef, 0x05, 0x33, 0xbd, 0x27, 0x30, 0x1f, 0x3f, 0x04, 0x15, 0x0a, 0xbe,
  0x7d, 0xd9, 0x65, 0xbf, 0xc2, 0xe5, 0xfe, 0xbe, 0x97, 0xc2, 0xce, 0xbe,
  0x04, 0xd5, 0x10, 0x3c, 0xb9, 0x44, 0xdf, 0xbd, 0xa0, 0x23, 0x23, 0x3e,
  0xa1, 0x8e, 0x37, 0x3f, 0xaa, 0x2e, 0x0e, 0x3f, 0xac, 0x2c, 0x90, 0x3e,
  0xa0, 0x7d, 0x90, 0x3e, 0xb7, 0xc4, 0x35, 0x3f, 0x80, 0xa5, 0xc3, 0x3e,
  0xc6, 0xbb, 0x88, 0x3e, 0x74, 0x63, 0x32, 0x3e, 0x4f, 0x98, 0x16, 0x3f,
  0x38, 0x6d, 0x04, 0x3f, 0xa4, 0x91, 0x21, 0xbe, 0x1b, 0x9e, 0xf4, 0x3e,
  0xc6, 0x99, 0x87, 0xbd, 0xf9, 0x6c, 0xac, 0xbe, 0xf2, 0x08, 0x05, 0x3f,
  0x3d, 0x4f, 0x98, 0xbe, 0xfe, 0x73, 0x4a, 0x3f, 0x3e, 0x2b, 0xad, 0xbe,
  0xfc, 0xd9, 0xae, 0x3e, 0x0e, 0xb3, 0x04, 0x3f, 0x08, 0x4f, 0xd9, 0x3d,
  0x8e, 0xda, 0x02, 0x3f, 0x4a, 0xc5, 0x87, 0x3e, 0x76, 0xa6, 0xc8, 0xbe,
  0x1c, 0x4f, 0xcf, 0xbd, 0xa1, 0x6d, 0xf2, 0xbe, 0xab, 0xf0, 0x1b, 0xbc,
  0xa0, 0x98, 0x45, 0x3f, 0xc8, 0xb2, 0xe4, 0xbb, 0x23, 0xa4, 0x63, 0x3f,
  0xed, 0xd1, 0x87, 0x3f, 0x2a, 0x85, 0xbc, 0x3d, 0x0b, 0x6c, 0xf7, 0x3d,
  0x20, 0xd6, 0x26, 0x3f, 0xed, 0x03, 0x15, 0x3f, 0xfe, 0xde, 0x5c, 0x3e,
  0xb0, 0x68, 0x23, 0x3f, 0xf3, 0xe8, 0x20, 0x3f, 0x56, 0xc6, 0xfb, 0xbe,
  0xdf, 0xd6, 0xe5, 0x3e, 0x23, 0x5f, 0x89, 0x3e, 0x2a, 0xc3, 0xb3, 0xbe,
  0xc4, 0xe8, 0x17, 0x3f, 0xd8, 0x88, 0x91, 0x3c, 0x93, 0xc0, 0xea, 0x3e,
  0x63, 0x00, 0x1d, 0x3f, 0x5b, 0xa0, 0xf6, 0xbe, 0x89, 0x33, 0x3f, 0x3f,
  0x23, 0xea, 0x5c, 0x3e, 0xf3, 0x84, 0x05, 0xbf, 0xbe, 0xdd, 0x4e, 0x3f,
  0xe7, 0xe4, 0x31, 0x3f, 0x09, 0x33, 0x6f, 0xbe, 0x37, 0x53, 0x41, 0x3e,
  0x82, 0xf3, 0xcd, 0x3e, 0x78, 0x40, 0xdb, 0xbe, 0xc5, 0x3a, 0x90, 0xbf,
  0x8c, 0x6f, 0xd9, 0x3e, 0x91, 0x01, 0x51, 0x3f, 0x00, 0x00, 0x06, 0x00,
  0x08, 0x00, 0x04, 0x00, 0x06, 0x00, 0x00, 0x00, 0x04, 0x00, 0x00, 0x00,
  0x20, 0x00, 0x00, 0x00, 0x23, 0xa1, 0xb0, 0x3e, 0x16, 0xeb, 0x60, 0x3d,
  0x0d, 0x88, 0x70, 0x3e, 0x80, 0x20, 0x00, 0x3c, 0xb4, 0x30, 0x92, 0x3e,
  0x6b, 0xdd, 0x15, 0xba, 0x44, 0x78, 0xd0, 0x3e, 0x3e, 0x18, 0x3d, 0x3e,
  0x00, 0xfb, 0xff, 0xff, 0x04, 0xfb, 0xff, 0xff, 0x0f, 0x00, 0x00, 0x00,
  0x4d, 0x4c, 0x49, 0x52, 0x20, 0x43, 0x6f, 0x6e, 0x76, 0x65, 0x72, 0x74,
  0x65, 0x64, 0x2e, 0x00, 0x01, 0x00, 0x00, 0x00, 0x14, 0x00, 0x00, 0x00,
  0x00, 0x00, 0x0e, 0x00, 0x18, 0x00, 0x14, 0x00, 0x10, 0x00, 0x0c, 0x00,
  0x08, 0x00, 0x04, 0x00, 0x0e, 0x00, 0x00, 0x00, 0x14, 0x00, 0x00, 0x00,
  0x1c, 0x00, 0x00, 0x00, 0xf8, 0x00, 0x00, 0x00, 0xfc, 0x00, 0x00, 0x00,
  0x00, 0x01, 0x00, 0x00, 0x04, 0x00, 0x00, 0x00, 0x6d, 0x61, 0x69, 0x6e,
  0x00, 0x00, 0x00, 0x00, 0x03, 0x00, 0x00, 0x00, 0x90, 0x00, 0x00, 0x00,
  0x58, 0x00, 0x00, 0x00, 0x14, 0x00, 0x00, 0x00, 0x00, 0x00, 0x0e, 0x00,
  0x18, 0x00, 0x14, 0x00, 0x10, 0x00, 0x0c, 0x00, 0x0b, 0x00, 0x04, 0x00,
  0x0e, 0x00, 0x00, 0x00, 0x14, 0x00, 0x00, 0x00, 0x00, 0x00, 0x00, 0x08,
  0x10, 0x00, 0x00, 0x00, 0x14, 0x00, 0x00, 0x00, 0x02, 0x00, 0x00, 0x00,
  0x90, 0xfb, 0xff, 0xff, 0x01, 0x00, 0x00, 0x00, 0x08, 0x00, 0x00, 0x00,
  0x03, 0x00, 0x00, 0x00, 0x07, 0x00, 0x00, 0x00, 0x05, 0x00, 0x00, 0x00,
  0x03, 0x00, 0x00, 0x00, 0x00, 0x00, 0x0a, 0x00, 0x10, 0x00, 0x0c, 0x00,
  0x08, 0x00, 0x04, 0x00, 0x0a, 0x00, 0x00, 0x00, 0x0c, 0x00, 0x00, 0x00,
  0x10, 0x00, 0x00, 0x00, 0x01, 0x00, 0x00, 0x00, 0x01, 0x00, 0x00, 0x00,
  0x07, 0x00, 0x00, 0x00, 0x02, 0x00, 0x00, 0x00, 0x06, 0x00, 0x00, 0x00,
  0x04, 0x00, 0x00, 0x00, 0x00, 0x00, 0x0e, 0x00, 0x14, 0x00, 0x00, 0x00,
  0x10, 0x00, 0x0c, 0x00, 0x0b, 0x00, 0x04, 0x00, 0x0e, 0x00, 0x00, 0x00,
  0x1c, 0x00, 0x00, 0x00, 0x00, 0x00, 0x00, 0x01, 0x28, 0x00, 0x00, 0x00,
  0x2c, 0x00, 0x00, 0x00, 0x0c, 0x00, 0x14, 0x00, 0x13, 0x00, 0x0c, 0x00,
  0x08, 0x00, 0x07, 0x00, 0x0c, 0x00, 0x00, 0x00, 0x00, 0x00, 0x00, 0x01,
  0x01, 0x00, 0x00, 0x00, 0x01, 0x00, 0x00, 0x00, 0x00, 0x00, 0x00, 0x01,
  0x01, 0x00, 0x00, 0x00, 0x06, 0x00, 0x00, 0x00, 0x03, 0x00, 0x00, 0x00,
  0x00, 0x00, 0x00, 0x00, 0x02, 0x00, 0x00, 0x00, 0x01, 0x00, 0x00, 0x00,
  0x01, 0x00, 0x00, 0x00, 0x08, 0x00, 0x00, 0x00, 0x01, 0x00, 0x00, 0x00,
  0x00, 0x00, 0x00, 0x00, 0x09, 0x00, 0x00, 0x00, 0x84, 0x03, 0x00, 0x00,
  0x10, 0x03, 0x00, 0x00, 0xa0, 0x02, 0x00, 0x00, 0x48, 0x02, 0x00, 0x00,
  0xf8, 0x01, 0x00, 0x00, 0x94, 0x01, 0x00, 0x00, 0xc0, 0x00, 0x00, 0x00,
  0x60, 0x00, 0x00, 0x00, 0x04, 0x00, 0x00, 0x00, 0xb6, 0xfc, 0xff, 0xff,
  0x00, 0x00, 0x00, 0x01, 0x14, 0x00, 0x00, 0x00, 0x1c, 0x00, 0x00, 0x00,
  0x1c, 0x00, 0x00, 0x00, 0x09, 0x00, 0x00, 0x00, 0x34, 0x00, 0x00, 0x00,
  0x02, 0x00, 0x00, 0x00, 0xff, 0xff, 0xff, 0xff, 0x0a, 0x00, 0x00, 0x00,
  0x98, 0xfc, 0xff, 0xff, 0x19, 0x00, 0x00, 0x00, 0x53, 0x74, 0x61, 0x74,
  0x65, 0x66, 0x75, 0x6c, 0x50, 0x61, 0x72, 0x74, 0x69, 0x74, 0x69, 0x6f,
  0x6e, 0x65, 0x64, 0x43, 0x61, 0x6c, 0x6c, 0x3a, 0x30, 0x00, 0x00, 0x00,
  0x02, 0x00, 0x00, 0x00, 0x01, 0x00, 0x00, 0x00, 0x0a, 0x00, 0x00, 0x00,
  0x0e, 0xfd, 0xff, 0xff, 0x00, 0x00, 0x00, 0x01, 0x14, 0x00, 0x00, 0x00,
  0x1c, 0x00, 0x00, 0x00, 0x1c, 0x00, 0x00, 0x00, 0x08, 0x00, 0x00, 0x00,
  0x38, 0x00, 0x00, 0x00, 0x02, 0x00, 0x00, 0x00, 0xff, 0xff, 0xff, 0xff,
  0x20, 0x01, 0x00, 0x00, 0xf0, 0xfc, 0xff, 0xff, 0x1e, 0x00, 0x00, 0x00,
  0x73, 0x65, 0x71, 0x75, 0x65, 0x6e, 0x74, 0x69, 0x61, 0x6c, 0x5f, 0x33,
  0x2f, 0x66, 0x6c, 0x61, 0x74, 0x74, 0x65, 0x6e, 0x5f, 0x33, 0x2f, 0x52,
  0x65, 0x73, 0x68, 0x61, 0x70, 0x65, 0x00, 0x00, 0x02, 0x00, 0x00, 0x00,
  0x01, 0x00, 0x00, 0x00, 0x20, 0x01, 0x00, 0x00, 0x6a, 0xfd, 0xff, 0xff,
  0x00, 0x00, 0x00, 0x01, 0x14, 0x00, 0x00, 0x00, 0x24, 0x00, 0x00, 0x00,
  0x24, 0x00, 0x00, 0x00, 0x07, 0x00, 0x00, 0x00, 0xa4, 0x00, 0x00, 0x00,
  0x04, 0x00, 0x00, 0x00, 0xff, 0xff, 0xff, 0xff, 0x06, 0x00, 0x00, 0x00,
  0x06, 0x00, 0x00, 0x00, 0x08, 0x00, 0x00, 0x00, 0x54, 0xfd, 0xff, 0xff,
  0x82, 0x00, 0x00, 0x00, 0x73, 0x65, 0x71, 0x75, 0x65, 0x6e, 0x74, 0x69,
  0x61, 0x6c, 0x5f, 0x33, 0x2f, 0x63, 0x6f, 0x6e, 0x76, 0x32, 0x64, 0x5f,
  0x33, 0x2f, 0x52, 0x65, 0x6c, 0x75, 0x3b, 0x73, 0x65, 0x71, 0x75, 0x65,
  0x6e, 0x74, 0x69, 0x61, 0x6c, 0x5f, 0x33, 0x2f, 0x63, 0x6f, 0x6e, 0x76,
  0x32, 0x64, 0x5f, 0x33, 0x2f, 0x42, 0x69, 0x61, 0x73, 0x41, 0x64, 0x64,
  0x3b, 0x73, 0x65, 0x71, 0x75, 0x65, 0x6e, 0x74, 0x69, 0x61, 0x6c, 0x5f,
  0x33, 0x2f, 0x63, 0x6f, 0x6e, 0x76, 0x32, 0x64, 0x5f, 0x33, 0x2f, 0x43,
  0x6f, 0x6e, 0x76, 0x32, 0x44, 0x3b, 0x73, 0x65, 0x71, 0x75, 0x65, 0x6e,
  0x74, 0x69, 0x61, 0x6c, 0x5f, 0x33, 0x2f, 0x63, 0x6f, 0x6e, 0x76, 0x32,
  0x64, 0x5f, 0x33, 0x2f, 0x42, 0x69, 0x61, 0x73, 0x41, 0x64, 0x64, 0x2f,
  0x52, 0x65, 0x61, 0x64, 0x56, 0x61, 0x72, 0x69, 0x61, 0x62, 0x6c, 0x65,
  0x4f, 0x70, 0x00, 0x00, 0x04, 0x00, 0x00, 0x00, 0x01, 0x00, 0x00, 0x00,
  0x06, 0x00, 0x00, 0x00, 0x06, 0x00, 0x00, 0x00, 0x08, 0x00, 0x00, 0x00,
  0xaa, 0xfe, 0xff, 0xff, 0x00, 0x00, 0x00, 0x01, 0x10, 0x00, 0x00, 0x00,
  0x10, 0x00, 0x00, 0x00, 0x06, 0x00, 0x00, 0x00, 0x28, 0x00, 0x00, 0x00,
  0x0c, 0xfe, 0xff, 0xff, 0x1b, 0x00, 0x00, 0x00, 0x73, 0x65, 0x71, 0x75,
  0x65, 0x6e, 0x74, 0x69, 0x61, 0x6c, 0x5f, 0x33, 0x2f, 0x64, 0x65, 0x6e,
  0x73, 0x65, 0x5f, 0x33, 0x2f, 0x4d, 0x61, 0x74, 0x4d, 0x75, 0x6c, 0x00,
  0x02, 0x00, 0x00, 0x00, 0x0a, 0x00, 0x00, 0x00, 0x20, 0x01, 0x00, 0x00,
  0x00, 0x00, 0x16, 0x00, 0x1c, 0x00, 0x18, 0x00, 0x17, 0x00, 0x10, 0x00,
  0x0c, 0x00, 0x08, 0x00, 0x00, 0x00, 0x00, 0x00, 0x00, 0x00, 0x07, 0x00,
  0x16, 0x00, 0x00, 0x00, 0x00, 0x00, 0x00, 0x01, 0x14, 0x00, 0x00, 0x00,
  0x14, 0x00, 0x00, 0x00, 0x05, 0x00, 0x00, 0x00, 0x00, 0x00, 0x00, 0x02,
  0x2c, 0x00, 0x00, 0x00, 0x70, 0xfe, 0xff, 0xff, 0x1c, 0x00, 0x00, 0x00,
  0x73, 0x65, 0x71, 0x75, 0x65, 0x6e, 0x74, 0x69, 0x61, 0x6c, 0x5f, 0x33,
  0x2f, 0x66, 0x6c, 0x61, 0x74, 0x74, 0x65, 0x6e, 0x5f, 0x33, 0x2f, 0x43,
  0x6f, 0x6e, 0x73, 0x74, 0x00, 0x00, 0x00, 0x00, 0x01, 0x00, 0x00, 0x00,
  0x02, 0x00, 0x00, 0x00, 0x56, 0xff, 0xff, 0xff, 0x00, 0x00, 0x00, 0x01,
  0x10, 0x00, 0x00, 0x00, 0x10, 0x00, 0x00, 0x00, 0x04, 0x00, 0x00, 0x00,
  0x38, 0x00, 0x00, 0x00, 0xb8, 0xfe, 0xff, 0xff, 0x2b, 0x00, 0x00, 0x00,
  0x73, 0x65, 0x71, 0x75, 0x65, 0x6e, 0x74, 0x69, 0x61, 0x6c, 0x5f, 0x33,
  0x2f, 0x64, 0x65, 0x6e, 0x73, 0x65, 0x5f, 0x33, 0x2f, 0x42, 0x69, 0x61,
  0x73, 0x41, 0x64, 0x64, 0x2f, 0x52, 0x65, 0x61, 0x64, 0x56, 0x61, 0x72,
  0x69, 0x61, 0x62, 0x6c, 0x65, 0x4f, 0x70, 0x00, 0x01, 0x00, 0x00, 0x00,
  0x0a, 0x00, 0x00, 0x00, 0xaa, 0xff, 0xff, 0xff, 0x00, 0x00, 0x00, 0x01,
  0x10, 0x00, 0x00, 0x00, 0x10, 0x00, 0x00, 0x00, 0x03, 0x00, 0x00, 0x00,
  0x2c, 0x00, 0x00, 0x00, 0x0c, 0xff, 0xff, 0xff, 0x1c, 0x00, 0x00, 0x00,
  0x73, 0x65, 0x71, 0x75, 0x65, 0x6e, 0x74, 0x69, 0x61, 0x6c, 0x5f, 0x33,
  0x2f, 0x63, 0x6f, 0x6e, 0x76, 0x32, 0x64, 0x5f, 0x33, 0x2f, 0x43, 0x6f,
  0x6e, 0x76, 0x32, 0x44, 0x00, 0x00, 0x00, 0x00, 0x04, 0x00, 0x00, 0x00,
  0x08, 0x00, 0x00, 0x00, 0x03, 0x00, 0x00, 0x00, 0x03, 0x00, 0x00, 0x00,
  0x01, 0x00, 0x00, 0x00, 0x00, 0x00, 0x16, 0x00, 0x18, 0x00, 0x14, 0x00,
  0x00, 0x00, 0x10, 0x00, 0x0c, 0x00, 0x08, 0x00, 0x00, 0x00, 0x00, 0x00,
  0x00, 0x00, 0x07, 0x00, 0x16, 0x00, 0x00, 0x00, 0x00, 0x00, 0x00, 0x01,
  0x10, 0x00, 0x00, 0x00, 0x10, 0x00, 0x00, 0x00, 0x02, 0x00, 0x00, 0x00,
  0x3c, 0x00, 0x00, 0x00, 0x78, 0xff, 0xff, 0xff, 0x2c, 0x00, 0x00, 0x00,
  0x73, 0x65, 0x71, 0x75, 0x65, 0x6e, 0x74, 0x69, 0x61, 0x6c, 0x5f, 0x33,
  0x2f, 0x63, 0x6f, 0x6e, 0x76, 0x32, 0x64, 0x5f, 0x33, 0x2f, 0x42, 0x69,
  0x61, 0x73, 0x41, 0x64, 0x64, 0x2f, 0x52, 0x65, 0x61, 0x64, 0x56, 0x61,
  0x72, 0x69, 0x61, 0x62, 0x6c, 0x65, 0x4f, 0x70, 0x00, 0x00, 0x00, 0x00,
  0x01, 0x00, 0x00, 0x00, 0x08, 0x00, 0x00, 0x00, 0x00, 0x00, 0x16, 0x00,
  0x1c, 0x00, 0x18, 0x00, 0x00, 0x00, 0x14, 0x00, 0x10, 0x00, 0x0c, 0x00,
  0x00, 0x00, 0x00, 0x00, 0x08, 0x00, 0x07, 0x00, 0x16, 0x00, 0x00, 0x00,
  0x00, 0x00, 0x00, 0x01, 0x14, 0x00, 0x00, 0x00, 0x28, 0x00, 0x00, 0x00,
  0x28, 0x00, 0x00, 0x00, 0x01, 0x00, 0x00, 0x00, 0x48, 0x00, 0x00, 0x00,
  0x04, 0x00, 0x00, 0x00, 0xff, 0xff, 0xff, 0xff, 0x08, 0x00, 0x00, 0x00,
  0x08, 0x00, 0x00, 0x00, 0x01, 0x00, 0x00, 0x00, 0x04, 0x00, 0x04, 0x00,
  0x04, 0x00, 0x00, 0x00, 0x20, 0x00, 0x00, 0x00, 0x73, 0x65, 0x72, 0x76,
  0x69, 0x6e, 0x67, 0x5f, 0x64, 0x65, 0x66, 0x61, 0x75, 0x6c, 0x74, 0x5f,
  0x63, 0x6f, 0x6e, 0x76, 0x32, 0x64, 0x5f, 0x33, 0x5f, 0x69, 0x6e, 0x70,
  0x75, 0x74, 0x3a, 0x30, 0x00, 0x00, 0x00, 0x00, 0x04, 0x00, 0x00, 0x00,
  0x01, 0x00, 0x00, 0x00, 0x08, 0x00, 0x00, 0x00, 0x08, 0x00, 0x00, 0x00,
  0x01, 0x00, 0x00, 0x00, 0x03, 0x00, 0x00, 0x00, 0x30, 0x00, 0x00, 0x00,
  0x14, 0x00, 0x00, 0x00, 0x04, 0x00, 0x00, 0x00, 0xe8, 0xff, 0xff, 0xff,
  0x09, 0x00, 0x00, 0x00, 0x00, 0x00, 0x00, 0x09, 0xf4, 0xff, 0xff, 0xff,
  0x16, 0x00, 0x00, 0x00, 0x00, 0x00, 0x00, 0x16, 0x0c, 0x00, 0x0c, 0x00,
  0x0b, 0x00, 0x00, 0x00, 0x00, 0x00, 0x04, 0x00, 0x0c, 0x00, 0x00, 0x00,
  0x03, 0x00, 0x00, 0x00, 0x00, 0x00, 0x00, 0x03
};
unsigned int cnn_mnist_model_tflite_len = 13820;
